{
  "version": "1.0",
  "truncation": null,
  "padding": null,
  "added_tokens": [
    {
      "id": 0,
      "content": "[UNK]",
      "single_word": false,
      "lstrip": false,
      "rstrip": false,
      "normalized": false,
      "special": true
    },
    {
      "id": 1,
      "content": "[CLS]",
      "single_word": false,
      "lstrip": false,
      "rstrip": false,
      "normalized": false,
      "special": true
    },
    {
      "id": 2,
      "content": "[SEP]",
      "single_word": false,
      "lstrip": false,
      "rstrip": false,
      "normalized": false,
      "special": true
    },
    {
      "id": 3,
      "content": "[PAD]",
      "single_word": false,
      "lstrip": false,
      "rstrip": false,
      "normalized": false,
      "special": true
    },
    {
      "id": 4,
      "content": "[MASK]",
      "single_word": false,
      "lstrip": false,
      "rstrip": false,
      "normalized": false,
      "special": true
    },
    {
      "id": 5,
      "content": "[SOS]",
      "single_word": false,
      "lstrip": false,
      "rstrip": false,
      "normalized": false,
      "special": true
    },
    {
      "id": 6,
      "content": "[EOS]",
      "single_word": false,
      "lstrip": false,
      "rstrip": false,
      "normalized": false,
      "special": true
    }
  ],
  "normalizer": {
    "type": "Sequence",
    "normalizers": [
      {
        "type": "NFD"
      },
      {
        "type": "StripAccents"
      },
      {
        "type": "Lowercase"
      }
    ]
  },
  "pre_tokenizer": {
    "type": "Sequence",
    "pretokenizers": [
      {
        "type": "WhitespaceSplit"
      },
      {
        "type": "Punctuation",
        "behavior": "Isolated"
      }
    ]
  },
  "post_processor": null,
  "decoder": null,
  "model": {
    "type": "BPE",
    "dropout": null,
    "unk_token": "[UNK]",
    "continuing_subword_prefix": null,
    "end_of_word_suffix": null,
    "fuse_unk": false,
    "byte_fallback": false,
    "ignore_merges": false,
    "vocab": {
      "[UNK]": 0,
      "[CLS]": 1,
      "[SEP]": 2,
      "[PAD]": 3,
      "[MASK]": 4,
      "[SOS]": 5,
      "[EOS]": 6,
      "\b": 7,
      "!": 8,
      "\"": 9,
      "#": 10,
      "$": 11,
      "%": 12,
      "&": 13,
      "'": 14,
      "(": 15,
      ")": 16,
      "*": 17,
      "+": 18,
      ",": 19,
      "-": 20,
      ".": 21,
      "/": 22,
      "0": 23,
      "1": 24,
      "2": 25,
      "3": 26,
      "4": 27,
      "5": 28,
      "6": 29,
      "7": 30,
      "8": 31,
      "9": 32,
      ":": 33,
      ";": 34,
      "<": 35,
      "=": 36,
      ">": 37,
      "?": 38,
      "@": 39,
      "[": 40,
      "\\": 41,
      "]": 42,
      "^": 43,
      "_": 44,
      "`": 45,
      "a": 46,
      "b": 47,
      "c": 48,
      "d": 49,
      "e": 50,
      "f": 51,
      "g": 52,
      "h": 53,
      "i": 54,
      "j": 55,
      "k": 56,
      "l": 57,
      "m": 58,
      "n": 59,
      "o": 60,
      "p": 61,
      "q": 62,
      "r": 63,
      "s": 64,
      "t": 65,
      "u": 66,
      "v": 67,
      "w": 68,
      "x": 69,
      "y": 70,
      "z": 71,
      "{": 72,
      "|": 73,
      "}": 74,
      "~": 75,
      "": 76,
      "": 77,
      "": 78,
      "": 79,
      "": 80,
      "": 81,
      "": 82,
      "¡": 83,
      "¢": 84,
      "£": 85,
      "¥": 86,
      "¦": 87,
      "¨": 88,
      "©": 89,
      "ª": 90,
      "«": 91,
      "¬": 92,
      "­": 93,
      "®": 94,
      "¯": 95,
      "°": 96,
      "±": 97,
      "²": 98,
      "³": 99,
      "´": 100,
      "µ": 101,
      "¶": 102,
      "·": 103,
      "¹": 104,
      "º": 105,
      "»": 106,
      "¼": 107,
      "½": 108,
      "¾": 109,
      "¿": 110,
      "×": 111,
      "ß": 112,
      "æ": 113,
      "ð": 114,
      "÷": 115,
      "ø": 116,
      "þ": 117,
      "đ": 118,
      "ı": 119,
      "ł": 120,
      "ŋ": 121,
      "ɒ": 122,
      "ɔ": 123,
      "ə": 124,
      "ɛ": 125,
      "ɡ": 126,
      "ɣ": 127,
      "ɪ": 128,
      "ʃ": 129,
      "ʊ": 130,
      "ʰ": 131,
      "ʻ": 132,
      "ˆ": 133,
      "ˈ": 134,
      "ː": 135,
      "˜": 136,
      "α": 137,
      "β": 138,
      "γ": 139,
      "δ": 140,
      "ε": 141,
      "ζ": 142,
      "η": 143,
      "θ": 144,
      "ι": 145,
      "κ": 146,
      "λ": 147,
      "μ": 148,
      "ν": 149,
      "ξ": 150,
      "ο": 151,
      "π": 152,
      "ρ": 153,
      "ς": 154,
      "σ": 155,
      "τ": 156,
      "υ": 157,
      "φ": 158,
      "χ": 159,
      "ψ": 160,
      "ω": 161,
      "ϕ": 162,
      "а": 163,
      "б": 164,
      "в": 165,
      "д": 166,
      "е": 167,
      "и": 168,
      "к": 169,
      "л": 170,
      "н": 171,
      "о": 172,
      "р": 173,
      "с": 174,
      "у": 175,
      "ш": 176,
      "ы": 177,
      "ь": 178,
      "ђ": 179,
      "ј": 180,
      "ћ": 181,
      "؟": 182,
      "ا": 183,
      "ب": 184,
      "ة": 185,
      "ت": 186,
      "ث": 187,
      "ج": 188,
      "ح": 189,
      "د": 190,
      "ر": 191,
      "ز": 192,
      "س": 193,
      "ش": 194,
      "ص": 195,
      "ط": 196,
      "ع": 197,
      "غ": 198,
      "ف": 199,
      "ق": 200,
      "ك": 201,
      "ل": 202,
      "م": 203,
      "ن": 204,
      "ه": 205,
      "و": 206,
      "پ": 207,
      "چ": 208,
      "ک": 209,
      "گ": 210,
      "ی": 211,
      "۰": 212,
      "۱": 213,
      "۲": 214,
      "۳": 215,
      "۴": 216,
      "۵": 217,
      "۶": 218,
      "۷": 219,
      "۸": 220,
      "۹": 221,
      "।": 222,
      "অ": 223,
      "আ": 224,
      "ই": 225,
      "উ": 226,
      "এ": 227,
      "ও": 228,
      "ক": 229,
      "খ": 230,
      "গ": 231,
      "চ": 232,
      "ছ": 233,
      "জ": 234,
      "ট": 235,
      "ঠ": 236,
      "ড": 237,
      "ণ": 238,
      "ত": 239,
      "দ": 240,
      "ধ": 241,
      "ন": 242,
      "প": 243,
      "ফ": 244,
      "ব": 245,
      "ভ": 246,
      "ম": 247,
      "য": 248,
      "র": 249,
      "ল": 250,
      "শ": 251,
      "ষ": 252,
      "স": 253,
      "হ": 254,
      "ᄀ": 255,
      "ᄂ": 256,
      "ᄇ": 257,
      "ᄉ": 258,
      "ᄋ": 259,
      "ᄌ": 260,
      "ᄎ": 261,
      "ᄐ": 262,
      "ᄒ": 263,
      "ᅡ": 264,
      "ᅢ": 265,
      "ᅣ": 266,
      "ᅥ": 267,
      "ᅧ": 268,
      "ᅨ": 269,
      "ᅩ": 270,
      "ᅭ": 271,
      "ᅮ": 272,
      "ᅳ": 273,
      "ᅵ": 274,
      "ᆨ": 275,
      "ᆫ": 276,
      "ᆯ": 277,
      "ᆷ": 278,
      "ᆸ": 279,
      "ᆺ": 280,
      "ᆼ": 281,
      "ភ": 282,
      "ស": 283,
      "ᵀ": 284,
      "ᵢ": 285,
      "ᶜ": 286,
      "​": 287,
      "‌": 288,
      "‍": 289,
      "‎": 290,
      "–": 291,
      "—": 292,
      "‘": 293,
      "’": 294,
      "‚": 295,
      "“": 296,
      "”": 297,
      "„": 298,
      "†": 299,
      "•": 300,
      "…": 301,
      "′": 302,
      "″": 303,
      "⁄": 304,
      "⁰": 305,
      "⁴": 306,
      "⁵": 307,
      "⁶": 308,
      "⁷": 309,
      "⁸": 310,
      "⁹": 311,
      "⁺": 312,
      "⁻": 313,
      "ⁿ": 314,
      "₀": 315,
      "₁": 316,
      "₂": 317,
      "₃": 318,
      "₄": 319,
      "₅": 320,
      "₆": 321,
      "₇": 322,
      "₈": 323,
      "₊": 324,
      "₋": 325,
      "ₐ": 326,
      "ₙ": 327,
      "ₚ": 328,
      "€": 329,
      "₹": 330,
      "ℂ": 331,
      "℃": 332,
      "ℕ": 333,
      "ℙ": 334,
      "ℚ": 335,
      "ℝ": 336,
      "™": 337,
      "ℤ": 338,
      "→": 339,
      "↓": 340,
      "↔": 341,
      "↦": 342,
      "⇄": 343,
      "⇋": 344,
      "⇌": 345,
      "⇒": 346,
      "⇔": 347,
      "∀": 348,
      "∁": 349,
      "∂": 350,
      "∃": 351,
      "∅": 352,
      "∆": 353,
      "∇": 354,
      "∈": 355,
      "∑": 356,
      "−": 357,
      "∖": 358,
      "∘": 359,
      "∙": 360,
      "√": 361,
      "∞": 362,
      "∠": 363,
      "∧": 364,
      "∨": 365,
      "∩": 366,
      "∪": 367,
      "∫": 368,
      "∬": 369,
      "∭": 370,
      "∮": 371,
      "∴": 372,
      "∼": 373,
      "≅": 374,
      "≈": 375,
      "≡": 376,
      "≤": 377,
      "≥": 378,
      "⊂": 379,
      "⊃": 380,
      "⊆": 381,
      "⊕": 382,
      "⊖": 383,
      "⊗": 384,
      "⊢": 385,
      "⊨": 386,
      "⊸": 387,
      "⋂": 388,
      "⋃": 389,
      "⋅": 390,
      "⋆": 391,
      "⋮": 392,
      "⋯": 393,
      "⌘": 394,
      "⎡": 395,
      "⎢": 396,
      "⎣": 397,
      "⎤": 398,
      "⎥": 399,
      "⎦": 400,
      "─": 401,
      "│": 402,
      "└": 403,
      "┘": 404,
      "□": 405,
      "△": 406,
      "►": 407,
      "◇": 408,
      "◊": 409,
      "◦": 410,
      "◻": 411,
      "★": 412,
      "☹": 413,
      "♀": 414,
      "♂": 415,
      "♋": 416,
      "♠": 417,
      "♥": 418,
      "✌": 419,
      "✨": 420,
      "❤": 421,
      "⟨": 422,
      "⟩": 423,
      "⟶": 424,
      "⟷": 425,
      "⦵": 426,
      "⨉": 427,
      "ⱼ": 428,
      "。": 429,
      "「": 430,
      "」": 431,
      "い": 432,
      "う": 433,
      "え": 434,
      "お": 435,
      "か": 436,
      "き": 437,
      "く": 438,
      "け": 439,
      "さ": 440,
      "し": 441,
      "す": 442,
      "た": 443,
      "っ": 444,
      "て": 445,
      "と": 446,
      "な": 447,
      "に": 448,
      "の": 449,
      "は": 450,
      "ひ": 451,
      "ほ": 452,
      "ま": 453,
      "む": 454,
      "も": 455,
      "や": 456,
      "ょ": 457,
      "よ": 458,
      "る": 459,
      "れ": 460,
      "わ": 461,
      "を": 462,
      "ん": 463,
      "シ": 464,
      "タ": 465,
      "テ": 466,
      "マ": 467,
      "下": 468,
      "中": 469,
      "主": 470,
      "久": 471,
      "么": 472,
      "之": 473,
      "了": 474,
      "于": 475,
      "人": 476,
      "什": 477,
      "代": 478,
      "以": 479,
      "传": 480,
      "位": 481,
      "何": 482,
      "你": 483,
      "使": 484,
      "保": 485,
      "假": 486,
      "傷": 487,
      "公": 488,
      "分": 489,
      "别": 490,
      "到": 491,
      "动": 492,
      "古": 493,
      "可": 494,
      "同": 495,
      "后": 496,
      "吗": 497,
      "哪": 498,
      "器": 499,
      "因": 500,
      "园": 501,
      "国": 502,
      "基": 503,
      "天": 504,
      "如": 505,
      "始": 506,
      "子": 507,
      "定": 508,
      "对": 509,
      "寻": 510,
      "差": 511,
      "市": 512,
      "带": 513,
      "库": 514,
      "应": 515,
      "座": 516,
      "成": 517,
      "房": 518,
      "找": 519,
      "据": 520,
      "掛": 521,
      "数": 522,
      "數": 523,
      "斗": 524,
      "方": 525,
      "日": 526,
      "是": 527,
      "智": 528,
      "曹": 529,
      "有": 530,
      "束": 531,
      "析": 532,
      "林": 533,
      "校": 534,
      "梯": 535,
      "楼": 536,
      "段": 537,
      "水": 538,
      "池": 539,
      "河": 540,
      "法": 541,
      "洪": 542,
      "清": 543,
      "火": 544,
      "灭": 545,
      "物": 546,
      "特": 547,
      "献": 548,
      "用": 549,
      "田": 550,
      "病": 551,
      "瘟": 552,
      "白": 553,
      "的": 554,
      "直": 555,
      "知": 556,
      "破": 557,
      "福": 558,
      "种": 559,
      "穹": 560,
      "算": 561,
      "素": 562,
      "結": 563,
      "總": 564,
      "终": 565,
      "绥": 566,
      "考": 567,
      "能": 568,
      "至": 569,
      "芬": 570,
      "花": 571,
      "苍": 572,
      "藏": 573,
      "蛇": 574,
      "蛙": 575,
      "表": 576,
      "要": 577,
      "解": 578,
      "計": 579,
      "识": 580,
      "说": 581,
      "贡": 582,
      "贰": 583,
      "起": 584,
      "趙": 585,
      "车": 586,
      "辉": 587,
      "込": 588,
      "达": 589,
      "这": 590,
      "连": 591,
      "過": 592,
      "道": 593,
      "里": 594,
      "金": 595,
      "铁": 596,
      "間": 597,
      "间": 598,
      "階": 599,
      "面": 600,
      "音": 601,
      "頼": 602,
      "飛": 603,
      "高": 604,
      "鼠": 605,
      "ﬂ": 606,
      "，": 607,
      "：": 608,
      "？": 609,
      "𝐀": 610,
      "𝐁": 611,
      "𝐴": 612,
      "𝐵": 613,
      "𝐶": 614,
      "𝐷": 615,
      "𝐸": 616,
      "𝐹": 617,
      "𝐾": 618,
      "𝑀": 619,
      "𝑃": 620,
      "𝑇": 621,
      "𝑈": 622,
      "𝑎": 623,
      "𝑏": 624,
      "𝑐": 625,
      "𝑑": 626,
      "𝑒": 627,
      "𝑓": 628,
      "𝑖": 629,
      "𝑛": 630,
      "𝑝": 631,
      "𝑞": 632,
      "𝑟": 633,
      "𝑠": 634,
      "𝑡": 635,
      "𝑢": 636,
      "𝑣": 637,
      "𝑥": 638,
      "𝑦": 639,
      "𝑧": 640,
      "𝔸": 641,
      "𝔽": 642,
      "𝗮": 643,
      "𝗲": 644,
      "𝗵": 645,
      "𝗶": 646,
      "𝗹": 647,
      "𝗺": 648,
      "𝗻": 649,
      "𝗽": 650,
      "𝗿": 651,
      "𝘀": 652,
      "𝘂": 653,
      "𝛽": 654,
      "𝛾": 655,
      "𝜀": 656,
      "𝜇": 657,
      "𝜋": 658,
      "𝜏": 659,
      "𝜙": 660,
      "🌃": 661,
      "🌏": 662,
      "🌟": 663,
      "🌲": 664,
      "🌷": 665,
      "🎃": 666,
      "🎆": 667,
      "🎇": 668,
      "🎒": 669,
      "🎤": 670,
      "🎥": 671,
      "🎧": 672,
      "🎵": 673,
      "🎷": 674,
      "🎸": 675,
      "🎻": 676,
      "🎼": 677,
      "🏚": 678,
      "🏼": 679,
      "🐈": 680,
      "🐥": 681,
      "🐮": 682,
      "👀": 683,
      "👇": 684,
      "👌": 685,
      "👍": 686,
      "👎": 687,
      "👏": 688,
      "👠": 689,
      "👣": 690,
      "💐": 691,
      "💔": 692,
      "💙": 693,
      "💥": 694,
      "💯": 695,
      "💰": 696,
      "💼": 697,
      "📯": 698,
      "🔇": 699,
      "🔈": 700,
      "🔉": 701,
      "🔊": 702,
      "🔍": 703,
      "🔔": 704,
      "🔕": 705,
      "🔫": 706,
      "🕵": 707,
      "🗺": 708,
      "🗾": 709,
      "😀": 710,
      "😁": 711,
      "😂": 712,
      "😃": 713,
      "😇": 714,
      "😉": 715,
      "😊": 716,
      "😋": 717,
      "😍": 718,
      "😎": 719,
      "😑": 720,
      "😒": 721,
      "😗": 722,
      "😘": 723,
      "😜": 724,
      "😝": 725,
      "😞": 726,
      "😠": 727,
      "😫": 728,
      "😬": 729,
      "😯": 730,
      "😱": 731,
      "😻": 732,
      "🙄": 733,
      "🙅": 734,
      "🙏": 735,
      "🛡": 736,
      "🤗": 737,
      "🤤": 738,
      "🤩": 739,
      "🤪": 740,
      "🧏": 741,
      "🪑": 742,
      "th": 743,
      "the": 744,
      "in": 745,
      "an": 746,
      "er": 747,
      "on": 748,
      "at": 749,
      "en": 750,
      "es": 751,
      "is": 752,
      "re": 753,
      "of": 754,
      "ti": 755,
      "or": 756,
      "al": 757,
      "ing": 758,
      "ou": 759,
      "as": 760,
      "to": 761,
      "ar": 762,
      "le": 763,
      "and": 764,
      "ow": 765,
      "ch": 766,
      "it": 767,
      "ed": 768,
      "ent": 769,
      "wh": 770,
      "st": 771,
      "ro": 772,
      "ce": 773,
      "tion": 774,
      "ve": 775,
      "ol": 776,
      "ic": 777,
      "se": 778,
      "me": 779,
      "be": 780,
      "il": 781,
      "qu": 782,
      "id": 783,
      "what": 784,
      "for": 785,
      "ct": 786,
      "ion": 787,
      "ri": 788,
      "if": 789,
      "ans": 790,
      "co": 791,
      "wer": 792,
      "are": 793,
      "how": 794,
      "ab": 795,
      "pro": 796,
      "ir": 797,
      "answer": 798,
      "ad": 799,
      "he": 800,
      "ay": 801,
      "pl": 802,
      "that": 803,
      "con": 804,
      "am": 805,
      "ation": 806,
      "um": 807,
      "ate": 808,
      "us": 809,
      "ence": 810,
      "ter": 811,
      "po": 812,
      "do": 813,
      "ur": 814,
      "un": 815,
      "ex": 816,
      "wi": 817,
      "low": 818,
      "ge": 819,
      "you": 820,
      "ac": 821,
      "ques": 822,
      "man": 823,
      "all": 824,
      "pe": 825,
      "question": 826,
      "sent": 827,
      "de": 828,
      "mo": 829,
      "op": 830,
      "this": 831,
      "ne": 832,
      "ver": 833,
      "gh": 834,
      "sentence": 835,
      "we": 836,
      "with": 837,
      "ain": 838,
      "ke": 839,
      "ul": 840,
      "im": 841,
      "te": 842,
      "ap": 843,
      "iv": 844,
      "tr": 845,
      "com": 846,
      "fol": 847,
      "ts": 848,
      "follow": 849,
      "res": 850,
      "per": 851,
      "oo": 852,
      "following": 853,
      "ly": 854,
      "ie": 855,
      "many": 856,
      "out": 857,
      "gr": 858,
      "si": 859,
      "fe": 860,
      "can": 861,
      "no": 862,
      "has": 863,
      "by": 864,
      "ach": 865,
      "ha": 866,
      "ut": 867,
      "oun": 868,
      "ld": 869,
      "cl": 870,
      "so": 871,
      "su": 872,
      "ta": 873,
      "ds": 874,
      "ma": 875,
      "ste": 876,
      "ess": 877,
      "fro": 878,
      "giv": 879,
      "ue": 880,
      "from": 881,
      "one": 882,
      "ment": 883,
      "wor": 884,
      "tions": 885,
      "ber": 886,
      "ind": 887,
      "ite": 888,
      "given": 889,
      "sh": 890,
      "ill": 891,
      "ive": 892,
      "ine": 893,
      "does": 894,
      "ple": 895,
      "tic": 896,
      "igh": 897,
      "day": 898,
      "ity": 899,
      "ide": 900,
      "des": 901,
      "00": 902,
      "act": 903,
      "her": 904,
      "was": 905,
      "lo": 906,
      "ther": 907,
      "our": 908,
      "bo": 909,
      "ant": 910,
      "ag": 911,
      "ist": 912,
      "ame": 913,
      "wo": 914,
      "ll": 915,
      "wr": 916,
      "est": 917,
      "di": 918,
      "each": 919,
      "have": 920,
      "mar": 921,
      "ould": 922,
      "num": 923,
      "whi": 924,
      "now": 925,
      "gen": 926,
      "ty": 927,
      "number": 928,
      "sol": 929,
      "ers": 930,
      "tive": 931,
      "end": 932,
      "ase": 933,
      "af": 934,
      "step": 935,
      "able": 936,
      "par": 937,
      "she": 938,
      "du": 939,
      "cri": 940,
      "two": 941,
      "about": 942,
      "der": 943,
      "ree": 944,
      "ies": 945,
      "options": 946,
      "write": 947,
      "tal": 948,
      "age": 949,
      "car": 950,
      "ph": 951,
      "enti": 952,
      "ks": 953,
      "10": 954,
      "val": 955,
      "vie": 956,
      "cre": 957,
      "ble": 958,
      "there": 959,
      "ass": 960,
      "its": 961,
      "his": 962,
      "ear": 963,
      "let": 964,
      "ang": 965,
      "pre": 966,
      "than": 967,
      "descri": 968,
      "bl": 969,
      "ood": 970,
      "will": 971,
      "your": 972,
      "know": 973,
      "ext": 974,
      "cont": 975,
      "fer": 976,
      "up": 977,
      "str": 978,
      "ical": 979,
      "which": 980,
      "ci": 981,
      "find": 982,
      "li": 983,
      "sp": 984,
      "produ": 985,
      "spe": 986,
      "em": 987,
      "their": 988,
      "20": 989,
      "om": 990,
      "cor": 991,
      "ces": 992,
      "br": 993,
      "form": 994,
      "go": 995,
      "ight": 996,
      "ough": 997,
      "mon": 998,
      "ud": 999,
      "ason": 1000,
      "king": 1001,
      "more": 1002,
      "total": 1003,
      "ure": 1004,
      "sy": 1005,
      "ace": 1006,
      "ative": 1007,
      "bu": 1008,
      "ction": 1009,
      "min": 1010,
      "would": 1011,
      "au": 1012,
      "ast": 1013,
      "gener": 1014,
      "ater": 1015,
      "ong": 1016,
      "ound": 1017,
      "iz": 1018,
      "expl": 1019,
      "yes": 1020,
      "not": 1021,
      "ise": 1022,
      "ort": 1023,
      "fir": 1024,
      "twe": 1025,
      "et": 1026,
      "they": 1027,
      "dif": 1028,
      "ig": 1029,
      "posi": 1030,
      "dat": 1031,
      "ents": 1032,
      "ef": 1033,
      "ish": 1034,
      "some": 1035,
      "using": 1036,
      "first": 1037,
      "reason": 1038,
      "cons": 1039,
      "pres": 1040,
      "pr": 1041,
      "eng": 1042,
      "el": 1043,
      "led": 1044,
      "ally": 1045,
      "cal": 1046,
      "cur": 1047,
      "year": 1048,
      "prov": 1049,
      "cess": 1050,
      "tim": 1051,
      "dr": 1052,
      "data": 1053,
      "ous": 1054,
      "av": 1055,
      "who": 1056,
      "ard": 1057,
      "vel": 1058,
      "equ": 1059,
      "fr": 1060,
      "tom": 1061,
      "ory": 1062,
      "generate": 1063,
      "ack": 1064,
      "differ": 1065,
      "ari": 1066,
      "tri": 1067,
      "hour": 1068,
      "comp": 1069,
      "cho": 1070,
      "sis": 1071,
      "col": 1072,
      "hy": 1073,
      "three": 1074,
      "red": 1075,
      "did": 1076,
      "jo": 1077,
      "way": 1078,
      "value": 1079,
      "ink": 1080,
      "but": 1081,
      "rect": 1082,
      "make": 1083,
      "stud": 1084,
      "ick": 1085,
      "positive": 1086,
      "play": 1087,
      "ice": 1088,
      "these": 1089,
      "ange": 1090,
      "view": 1091,
      "very": 1092,
      "fect": 1093,
      "fri": 1094,
      "ance": 1095,
      "new": 1096,
      "ations": 1097,
      "cul": 1098,
      "pos": 1099,
      "lect": 1100,
      "ople": 1101,
      "people": 1102,
      "them": 1103,
      "need": 1104,
      "old": 1105,
      "oup": 1106,
      "sum": 1107,
      "ting": 1108,
      "gre": 1109,
      "name": 1110,
      "12": 1111,
      "bas": 1112,
      "fun": 1113,
      "cus": 1114,
      "fact": 1115,
      "ms": 1116,
      "ere": 1117,
      "ia": 1118,
      "fin": 1119,
      "eat": 1120,
      "son": 1121,
      "provide": 1122,
      "other": 1123,
      "ated": 1124,
      "group": 1125,
      "cent": 1126,
      "kes": 1127,
      "own": 1128,
      "review": 1129,
      "ens": 1130,
      "neg": 1131,
      "after": 1132,
      "air": 1133,
      "negative": 1134,
      "words": 1135,
      "ball": 1136,
      "food": 1137,
      "ho": 1138,
      "water": 1139,
      "process": 1140,
      "explain": 1141,
      "when": 1142,
      "my": 1143,
      "list": 1144,
      "known": 1145,
      "where": 1146,
      "please": 1147,
      "mu": 1148,
      "reasoning": 1149,
      "boo": 1150,
      "dis": 1151,
      "solve": 1152,
      "abo": 1153,
      "time": 1154,
      "inter": 1155,
      "vari": 1156,
      "betwe": 1157,
      "between": 1158,
      "above": 1159,
      "og": 1160,
      "times": 1161,
      "think": 1162,
      "get": 1163,
      "ution": 1164,
      "io": 1165,
      "cr": 1166,
      "ors": 1167,
      "spec": 1168,
      "type": 1169,
      "ating": 1170,
      "cy": 1171,
      "line": 1172,
      "main": 1173,
      "use": 1174,
      "50": 1175,
      "ters": 1176,
      "ck": 1177,
      "ip": 1178,
      "same": 1179,
      "fl": 1180,
      "poin": 1181,
      "ian": 1182,
      "into": 1183,
      "describe": 1184,
      "ily": 1185,
      "here": 1186,
      "sible": 1187,
      "area": 1188,
      "als": 1189,
      "coun": 1190,
      "ev": 1191,
      "ary": 1192,
      "then": 1193,
      "had": 1194,
      "order": 1195,
      "30": 1196,
      "put": 1197,
      "fic": 1198,
      "wee": 1199,
      "set": 1200,
      "over": 1201,
      "ific": 1202,
      "les": 1203,
      "try": 1204,
      "any": 1205,
      "long": 1206,
      "class": 1207,
      "were": 1208,
      "read": 1209,
      "correct": 1210,
      "ider": 1211,
      "taur": 1212,
      "restaur": 1213,
      "ences": 1214,
      "mil": 1215,
      "possible": 1216,
      "term": 1217,
      "restaurant": 1218,
      "years": 1219,
      "pol": 1220,
      "ca": 1221,
      "hours": 1222,
      "product": 1223,
      "ser": 1224,
      "thesis": 1225,
      "art": 1226,
      "comple": 1227,
      "grap": 1228,
      "ought": 1229,
      "mat": 1230,
      "port": 1231,
      "every": 1232,
      "sto": 1233,
      "syste": 1234,
      "ties": 1235,
      "ility": 1236,
      "text": 1237,
      "stru": 1238,
      "ples": 1239,
      "unknown": 1240,
      "movie": 1241,
      "fam": 1242,
      "plan": 1243,
      "ok": 1244,
      "variable": 1245,
      "work": 1246,
      "custom": 1247,
      "ength": 1248,
      "15": 1249,
      "consider": 1250,
      "vers": 1251,
      "je": 1252,
      "mi": 1253,
      "fy": 1254,
      "create": 1255,
      "hal": 1256,
      "gs": 1257,
      "la": 1258,
      "char": 1259,
      "ates": 1260,
      "action": 1261,
      "pri": 1262,
      "high": 1263,
      "ore": 1264,
      "ful": 1265,
      "friend": 1266,
      "affect": 1267,
      "used": 1268,
      "utes": 1269,
      "cat": 1270,
      "different": 1271,
      "minutes": 1272,
      "ons": 1273,
      "ys": 1274,
      "true": 1275,
      "hypo": 1276,
      "cle": 1277,
      "take": 1278,
      "19": 1279,
      "based": 1280,
      "mary": 1281,
      "hum": 1282,
      "choo": 1283,
      "ild": 1284,
      "tra": 1285,
      "tle": 1286,
      "city": 1287,
      "sur": 1288,
      "sen": 1289,
      "function": 1290,
      "ability": 1291,
      "graph": 1292,
      "mise": 1293,
      "most": 1294,
      "sa": 1295,
      "length": 1296,
      "ger": 1297,
      "half": 1298,
      "students": 1299,
      "premise": 1300,
      "cau": 1301,
      "choose": 1302,
      "ning": 1303,
      "ices": 1304,
      "customer": 1305,
      "system": 1306,
      "person": 1307,
      "ale": 1308,
      "thing": 1309,
      "25": 1310,
      "ten": 1311,
      "ade": 1312,
      "uring": 1313,
      "clu": 1314,
      "week": 1315,
      "ins": 1316,
      "solution": 1317,
      "ry": 1318,
      "exam": 1319,
      "proble": 1320,
      "calcul": 1321,
      "twi": 1322,
      "cer": 1323,
      "100": 1324,
      "hypothesis": 1325,
      "state": 1326,
      "iled": 1327,
      "next": 1328,
      "twice": 1329,
      "ak": 1330,
      "mean": 1331,
      "cu": 1332,
      "ular": 1333,
      "less": 1334,
      "vol": 1335,
      "chem": 1336,
      "cm": 1337,
      "ches": 1338,
      "pick": 1339,
      "tur": 1340,
      "ctive": 1341,
      "determ": 1342,
      "determine": 1343,
      "while": 1344,
      "identi": 1345,
      "lar": 1346,
      "dy": 1347,
      "thr": 1348,
      "angle": 1349,
      "specific": 1350,
      "days": 1351,
      "gn": 1352,
      "ep": 1353,
      "family": 1354,
      "tain": 1355,
      "tho": 1356,
      "sing": 1357,
      "ouse": 1358,
      "olog": 1359,
      "40": 1360,
      "comm": 1361,
      "60": 1362,
      "stand": 1363,
      "give": 1364,
      "ft": 1365,
      "four": 1366,
      "such": 1367,
      "like": 1368,
      "app": 1369,
      "aver": 1370,
      "problem": 1371,
      "senti": 1372,
      "story": 1373,
      "sentiment": 1374,
      "describ": 1375,
      "ket": 1376,
      "gram": 1377,
      "secon": 1378,
      "vi": 1379,
      "ves": 1380,
      "ze": 1381,
      "ask": 1382,
      "miles": 1383,
      "common": 1384,
      "med": 1385,
      "sentences": 1386,
      "sub": 1387,
      "cause": 1388,
      "box": 1389,
      "average": 1390,
      "being": 1391,
      "blue": 1392,
      "short": 1393,
      "word": 1394,
      "deta": 1395,
      "contain": 1396,
      "pot": 1397,
      "ving": 1398,
      "gy": 1399,
      "ature": 1400,
      "much": 1401,
      "house": 1402,
      "top": 1403,
      "struct": 1404,
      "equation": 1405,
      "trans": 1406,
      "ends": 1407,
      "cep": 1408,
      "math": 1409,
      "left": 1410,
      "identify": 1411,
      "show": 1412,
      "why": 1413,
      "sense": 1414,
      "ants": 1415,
      "war": 1416,
      "vir": 1417,
      "room": 1418,
      "dec": 1419,
      "bre": 1420,
      "inte": 1421,
      "ages": 1422,
      "lls": 1423,
      "ticle": 1424,
      "run": 1425,
      "ved": 1426,
      "land": 1427,
      "18": 1428,
      "ail": 1429,
      "wal": 1430,
      "should": 1431,
      "dist": 1432,
      "aly": 1433,
      "come": 1434,
      "mall": 1435,
      "men": 1436,
      "remain": 1437,
      "ot": 1438,
      "pie": 1439,
      "ration": 1440,
      "ize": 1441,
      "human": 1442,
      "pon": 1443,
      "pop": 1444,
      "meters": 1445,
      "five": 1446,
      "bir": 1447,
      "ments": 1448,
      "fore": 1449,
      "during": 1450,
      "gu": 1451,
      "reaction": 1452,
      "near": 1453,
      "ath": 1454,
      "velop": 1455,
      "bus": 1456,
      "200": 1457,
      "sup": 1458,
      "chool": 1459,
      "proper": 1460,
      "tech": 1461,
      "key": 1462,
      "tweet": 1463,
      "school": 1464,
      "gg": 1465,
      "ini": 1466,
      "charact": 1467,
      "tre": 1468,
      "sim": 1469,
      "rel": 1470,
      "rate": 1471,
      "article": 1472,
      "place": 1473,
      "gan": 1474,
      "ness": 1475,
      "squ": 1476,
      "prob": 1477,
      "calculate": 1478,
      "reg": 1479,
      "ced": 1480,
      "ii": 1481,
      "bri": 1482,
      "requ": 1483,
      "rating": 1484,
      "anim": 1485,
      "develop": 1486,
      "down": 1487,
      "small": 1488,
      "ga": 1489,
      "ited": 1490,
      "sion": 1491,
      "bon": 1492,
      "tem": 1493,
      "bi": 1494,
      "joh": 1495,
      "books": 1496,
      "select": 1497,
      "world": 1498,
      "pose": 1499,
      "ject": 1500,
      "curr": 1501,
      "ju": 1502,
      "eattype": 1503,
      "summary": 1504,
      "sk": 1505,
      "ele": 1506,
      "mer": 1507,
      "ield": 1508,
      "chan": 1509,
      "16": 1510,
      "ght": 1511,
      "off": 1512,
      "fi": 1513,
      "want": 1514,
      "point": 1515,
      "initi": 1516,
      "best": 1517,
      "feet": 1518,
      "aw": 1519,
      "ign": 1520,
      "star": 1521,
      "under": 1522,
      "john": 1523,
      "second": 1524,
      "pu": 1525,
      "ounds": 1526,
      "bar": 1527,
      "add": 1528,
      "questions": 1529,
      "build": 1530,
      "descrip": 1531,
      "probability": 1532,
      "cap": 1533,
      "book": 1534,
      "ob": 1535,
      "because": 1536,
      "could": 1537,
      "atur": 1538,
      "apples": 1539,
      "lif": 1540,
      "ways": 1541,
      "mus": 1542,
      "uni": 1543,
      "pric": 1544,
      "ls": 1545,
      "ank": 1546,
      "ven": 1547,
      "through": 1548,
      "che": 1549,
      "face": 1550,
      "pat": 1551,
      "store": 1552,
      "back": 1553,
      "ted": 1554,
      "friendly": 1555,
      "log": 1556,
      "clo": 1557,
      "ames": 1558,
      "ential": 1559,
      "both": 1560,
      "amer": 1561,
      "numbers": 1562,
      "mis": 1563,
      "fici": 1564,
      "erange": 1565,
      "pricerange": 1566,
      "ues": 1567,
      "ines": 1568,
      "bro": 1569,
      "chemical": 1570,
      "made": 1571,
      "sign": 1572,
      "points": 1573,
      "ism": 1574,
      "ps": 1575,
      "ener": 1576,
      "dition": 1577,
      "2x": 1578,
      "techn": 1579,
      "ital": 1580,
      "elect": 1581,
      "only": 1582,
      "takes": 1583,
      "home": 1584,
      "mechan": 1585,
      "also": 1586,
      "ctions": 1587,
      "incre": 1588,
      "present": 1589,
      "na": 1590,
      "ding": 1591,
      "div": 1592,
      "hel": 1593,
      "answers": 1594,
      "ided": 1595,
      "pen": 1596,
      "last": 1597,
      "14": 1598,
      "dog": 1599,
      "good": 1600,
      "ream": 1601,
      "don": 1602,
      "sun": 1603,
      "ben": 1604,
      "loc": 1605,
      "shop": 1606,
      "side": 1607,
      "change": 1608,
      "before": 1609,
      "travel": 1610,
      "ros": 1611,
      "far": 1612,
      "formation": 1613,
      "vis": 1614,
      "mole": 1615,
      "respon": 1616,
      "oc": 1617,
      "cup": 1618,
      "ics": 1619,
      "uses": 1620,
      "bag": 1621,
      "inclu": 1622,
      "detailed": 1623,
      "student": 1624,
      "ual": 1625,
      "statement": 1626,
      "thir": 1627,
      "month": 1628,
      "tiv": 1629,
      "imp": 1630,
      "gir": 1631,
      "fish": 1632,
      "around": 1633,
      "ings": 1634,
      "cost": 1635,
      "speed": 1636,
      "fil": 1637,
      "explan": 1638,
      "ord": 1639,
      "dro": 1640,
      "peri": 1641,
      "non": 1642,
      "pass": 1643,
      "lead": 1644,
      "alth": 1645,
      "mul": 1646,
      "writ": 1647,
      "describes": 1648,
      "xim": 1649,
      "current": 1650,
      "been": 1651,
      "produce": 1652,
      "explanation": 1653,
      "11": 1654,
      "pho": 1655,
      "happ": 1656,
      "expres": 1657,
      "wn": 1658,
      "train": 1659,
      "title": 1660,
      "sure": 1661,
      "cook": 1662,
      "thought": 1663,
      "ases": 1664,
      "body": 1665,
      "ology": 1666,
      "him": 1667,
      "energy": 1668,
      "pur": 1669,
      "ton": 1670,
      "see": 1671,
      "lit": 1672,
      "buy": 1673,
      "balls": 1674,
      "company": 1675,
      "least": 1676,
      "anges": 1677,
      "sal": 1678,
      "adi": 1679,
      "ner": 1680,
      "light": 1681,
      "ox": 1682,
      "green": 1683,
      "complex": 1684,
      "py": 1685,
      "friends": 1686,
      "found": 1687,
      "properties": 1688,
      "familyfriendly": 1689,
      "appro": 1690,
      "bles": 1691,
      "impact": 1692,
      "choices": 1693,
      "ils": 1694,
      "concep": 1695,
      "bin": 1696,
      "loo": 1697,
      "cand": 1698,
      "ute": 1699,
      "ict": 1700,
      "character": 1701,
      "mm": 1702,
      "sam": 1703,
      "bio": 1704,
      "pair": 1705,
      "multi": 1706,
      "que": 1707,
      "flow": 1708,
      "ba": 1709,
      "remaining": 1710,
      "bought": 1711,
      "ides": 1712,
      "pounds": 1713,
      "organ": 1714,
      "inches": 1715,
      "team": 1716,
      "square": 1717,
      "ra": 1718,
      "care": 1719,
      "context": 1720,
      "cial": 1721,
      "temper": 1722,
      "ribu": 1723,
      "country": 1724,
      "ges": 1725,
      "13": 1726,
      "pes": 1727,
      "game": 1728,
      "dri": 1729,
      "sci": 1730,
      "80": 1731,
      "fee": 1732,
      "whe": 1733,
      "gl": 1734,
      "sco": 1735,
      "000": 1736,
      "rest": 1737,
      "toge": 1738,
      "life": 1739,
      "sel": 1740,
      "ric": 1741,
      "together": 1742,
      "field": 1743,
      "analy": 1744,
      "stream": 1745,
      "needs": 1746,
      "cir": 1747,
      "ions": 1748,
      "hist": 1749,
      "ually": 1750,
      "bal": 1751,
      "pain": 1752,
      "ship": 1753,
      "row": 1754,
      "ulation": 1755,
      "third": 1756,
      "surface": 1757,
      "24": 1758,
      "health": 1759,
      "cof": 1760,
      "contin": 1761,
      "bor": 1762,
      "mem": 1763,
      "great": 1764,
      "town": 1765,
      "plant": 1766,
      "plic": 1767,
      "input": 1768,
      "again": 1769,
      "bet": 1770,
      "coffee": 1771,
      "ify": 1772,
      "defin": 1773,
      "ount": 1774,
      "effect": 1775,
      "ats": 1776,
      "prove": 1777,
      "chain": 1778,
      "tical": 1779,
      "turn": 1780,
      "envir": 1781,
      "environ": 1782,
      "poly": 1783,
      "just": 1784,
      "head": 1785,
      "ash": 1786,
      "ult": 1787,
      "syn": 1788,
      "int": 1789,
      "complete": 1790,
      "height": 1791,
      "meaning": 1792,
      "da": 1793,
      "3x": 1794,
      "grow": 1795,
      "below": 1796,
      "tree": 1797,
      "americ": 1798,
      "nor": 1799,
      "rationale": 1800,
      "states": 1801,
      "tall": 1802,
      "metho": 1803,
      "chil": 1804,
      "adv": 1805,
      "role": 1806,
      "someone": 1807,
      "feel": 1808,
      "addition": 1809,
      "wat": 1810,
      "orig": 1811,
      "must": 1812,
      "help": 1813,
      "os": 1814,
      "hand": 1815,
      "pieces": 1816,
      "triangle": 1817,
      "wa": 1818,
      "part": 1819,
      "example": 1820,
      "potential": 1821,
      "temperature": 1822,
      "weight": 1823,
      "foo": 1824,
      "por": 1825,
      "mal": 1826,
      "amount": 1827,
      "dren": 1828,
      "base": 1829,
      "sugg": 1830,
      "children": 1831,
      "went": 1832,
      "cell": 1833,
      "meas": 1834,
      "sl": 1835,
      "ress": 1836,
      "ah": 1837,
      "pt": 1838,
      "united": 1839,
      "cious": 1840,
      "bur": 1841,
      "sin": 1842,
      "pages": 1843,
      "ational": 1844,
      "17": 1845,
      "another": 1846,
      "sequ": 1847,
      "mone": 1848,
      "iness": 1849,
      "mol": 1850,
      "animals": 1851,
      "har": 1852,
      "without": 1853,
      "prote": 1854,
      "real": 1855,
      "avail": 1856,
      "case": 1857,
      "table": 1858,
      "brief": 1859,
      "ene": 1860,
      "origin": 1861,
      "right": 1862,
      "sit": 1863,
      "orph": 1864,
      "got": 1865,
      "ased": 1866,
      "tell": 1867,
      "ane": 1868,
      "description": 1869,
      "rece": 1870,
      "imag": 1871,
      "ient": 1872,
      "istic": 1873,
      "park": 1874,
      "marbles": 1875,
      "yle": 1876,
      "design": 1877,
      "lor": 1878,
      "hol": 1879,
      "ken": 1880,
      "information": 1881,
      "task": 1882,
      "may": 1883,
      "photo": 1884,
      "ency": 1885,
      "import": 1886,
      "invol": 1887,
      "wants": 1888,
      "conscious": 1889,
      "output": 1890,
      "para": 1891,
      "sym": 1892,
      "rain": 1893,
      "space": 1894,
      "won": 1895,
      "ris": 1896,
      "tern": 1897,
      "woman": 1898,
      "youn": 1899,
      "ateg": 1900,
      "fast": 1901,
      "structure": 1902,
      "ei": 1903,
      "species": 1904,
      "weigh": 1905,
      "away": 1906,
      "ny": 1907,
      "dim": 1908,
      "amp": 1909,
      "paragraph": 1910,
      "ron": 1911,
      "teach": 1912,
      "difference": 1913,
      "liv": 1914,
      "consciousness": 1915,
      "types": 1916,
      "available": 1917,
      "fall": 1918,
      "party": 1919,
      "foot": 1920,
      "cular": 1921,
      "whether": 1922,
      "environment": 1923,
      "cover": 1924,
      "lish": 1925,
      "pow": 1926,
      "ome": 1927,
      "effici": 1928,
      "ley": 1929,
      "ather": 1930,
      "against": 1931,
      "rivers": 1932,
      "kil": 1933,
      "start": 1934,
      "sti": 1935,
      "equations": 1936,
      "dise": 1937,
      "acid": 1938,
      "bot": 1939,
      "final": 1940,
      "tivity": 1941,
      "compare": 1942,
      "night": 1943,
      "bel": 1944,
      "black": 1945,
      "rand": 1946,
      "size": 1947,
      "bs": 1948,
      "gas": 1949,
      "bill": 1950,
      "said": 1951,
      "idge": 1952,
      "contribu": 1953,
      "pect": 1954,
      "aim": 1955,
      "well": 1956,
      "tric": 1957,
      "those": 1958,
      "shir": 1959,
      "white": 1960,
      "za": 1961,
      "cards": 1962,
      "grad": 1963,
      "acy": 1964,
      "ire": 1965,
      "flu": 1966,
      "ures": 1967,
      "walk": 1968,
      "bed": 1969,
      "grams": 1970,
      "ories": 1971,
      "bat": 1972,
      "six": 1973,
      "curve": 1974,
      "riverside": 1975,
      "sive": 1976,
      "suppose": 1977,
      "isms": 1978,
      "sold": 1979,
      "song": 1980,
      "isom": 1981,
      "rewrite": 1982,
      "jus": 1983,
      "groups": 1984,
      "plants": 1985,
      "hor": 1986,
      "den": 1987,
      "gard": 1988,
      "ground": 1989,
      "though": 1990,
      "accur": 1991,
      "rix": 1992,
      "money": 1993,
      "gave": 1994,
      "fru": 1995,
      "includes": 1996,
      "cookies": 1997,
      "oes": 1998,
      "ized": 1999,
      "development": 2000,
      "sed": 2001,
      "population": 2002,
      "pic": 2003,
      "units": 2004,
      "going": 2005,
      "justi": 2006,
      "say": 2007,
      "radi": 2008,
      "ese": 2009,
      "mor": 2010,
      "factors": 2011,
      "initially": 2012,
      "ension": 2013,
      "phr": 2014,
      "fective": 2015,
      "birth": 2016,
      "music": 2017,
      "ina": 2018,
      "distance": 2019,
      "tices": 2020,
      "business": 2021,
      "matrix": 2022,
      "standard": 2023,
      "self": 2024,
      "incl": 2025,
      "maxim": 2026,
      "level": 2027,
      "rele": 2028,
      "net": 2029,
      "pun": 2030,
      "ailed": 2031,
      "ial": 2032,
      "mark": 2033,
      "ye": 2034,
      "position": 2035,
      "eg": 2036,
      "aper": 2037,
      "formul": 2038,
      "aves": 2039,
      "att": 2040,
      "ban": 2041,
      "wed": 2042,
      "contains": 2043,
      "cks": 2044,
      "suggest": 2045,
      "ney": 2046,
      "zy": 2047,
      "equal": 2048,
      "summar": 2049,
      "series": 2050,
      "test": 2051,
      "dogs": 2052,
      "took": 2053,
      "aces": 2054,
      "clim": 2055,
      "ones": 2056,
      "contribute": 2057,
      "ru": 2058,
      "iter": 2059,
      "eggs": 2060,
      "arch": 2061,
      "45": 2062,
      "stic": 2063,
      "plane": 2064,
      "dig": 2065,
      "prof": 2066,
      "claim": 2067,
      "experi": 2068,
      "ination": 2069,
      "optim": 2070,
      "either": 2071,
      "steps": 2072,
      "gers": 2073,
      "earth": 2074,
      "uation": 2075,
      "ili": 2076,
      "iod": 2077,
      "building": 2078,
      "watch": 2079,
      "win": 2080,
      "even": 2081,
      "hold": 2082,
      "ume": 2083,
      "ump": 2084,
      "flo": 2085,
      "ied": 2086,
      "pa": 2087,
      "sand": 2088,
      "percent": 2089,
      "imagine": 2090,
      "alog": 2091,
      "english": 2092,
      "playing": 2093,
      "too": 2094,
      "vo": 2095,
      "option": 2096,
      "mater": 2097,
      "tes": 2098,
      "concepts": 2099,
      "ident": 2100,
      "event": 2101,
      "ired": 2102,
      "prime": 2103,
      "pack": 2104,
      "open": 2105,
      "acks": 2106,
      "isomorph": 2107,
      "lear": 2108,
      "gar": 2109,
      "sha": 2110,
      "cycl": 2111,
      "might": 2112,
      "cells": 2113,
      "lang": 2114,
      "met": 2115,
      "ctor": 2116,
      "garden": 2117,
      "500": 2118,
      "kets": 2119,
      "style": 2120,
      "cing": 2121,
      "cour": 2122,
      "power": 2123,
      "ately": 2124,
      "combin": 2125,
      "technology": 2126,
      "degre": 2127,
      "collect": 2128,
      "degrees": 2129,
      "brother": 2130,
      "plo": 2131,
      "const": 2132,
      "concent": 2133,
      "male": 2134,
      "production": 2135,
      "basket": 2136,
      "cut": 2137,
      "makes": 2138,
      "anti": 2139,
      "goal": 2140,
      "entailed": 2141,
      "move": 2142,
      "gin": 2143,
      "ived": 2144,
      "includ": 2145,
      "suc": 2146,
      "sc": 2147,
      "mes": 2148,
      "minim": 2149,
      "bow": 2150,
      "wear": 2151,
      "ply": 2152,
      "iday": 2153,
      "gold": 2154,
      "ann": 2155,
      "ench": 2156,
      "ision": 2157,
      "langu": 2158,
      "lu": 2159,
      "istry": 2160,
      "making": 2161,
      "piz": 2162,
      "metal": 2163,
      "meter": 2164,
      "poem": 2165,
      "oper": 2166,
      "mid": 2167,
      "constant": 2168,
      "boxes": 2169,
      "dol": 2170,
      "topic": 2171,
      "round": 2172,
      "prin": 2173,
      "initial": 2174,
      "ists": 2175,
      "ator": 2176,
      "frac": 2177,
      "cars": 2178,
      "boat": 2179,
      "random": 2180,
      "gest": 2181,
      "ows": 2182,
      "plot": 2183,
      "color": 2184,
      "member": 2185,
      "phys": 2186,
      "nam": 2187,
      "big": 2188,
      "inv": 2189,
      "colle": 2190,
      "pi": 2191,
      "treat": 2192,
      "une": 2193,
      "phone": 2194,
      "serv": 2195,
      "fit": 2196,
      "fully": 2197,
      "ling": 2198,
      "certain": 2199,
      "hi": 2200,
      "terms": 2201,
      "linear": 2202,
      "phrase": 2203,
      "arr": 2204,
      "radius": 2205,
      "gene": 2206,
      "pred": 2207,
      "36": 2208,
      "unique": 2209,
      "cise": 2210,
      "writing": 2211,
      "90": 2212,
      "ross": 2213,
      "hydro": 2214,
      "suit": 2215,
      "choice": 2216,
      "28": 2217,
      "free": 2218,
      "maximum": 2219,
      "american": 2220,
      "evol": 2221,
      "break": 2222,
      "27": 2223,
      "35": 2224,
      "tract": 2225,
      "national": 2226,
      "brown": 2227,
      "james": 2228,
      "classify": 2229,
      "ids": 2230,
      "exact": 2231,
      "construct": 2232,
      "chemistry": 2233,
      "lay": 2234,
      "ables": 2235,
      "eu": 2236,
      "ization": 2237,
      "yl": 2238,
      "thoughts": 2239,
      "effective": 2240,
      "ument": 2241,
      "atures": 2242,
      "benef": 2243,
      "moder": 2244,
      "mag": 2245,
      "vertices": 2246,
      "continue": 2247,
      "ivid": 2248,
      "love": 2249,
      "film": 2250,
      "changes": 2251,
      "values": 2252,
      "band": 2253,
      "period": 2254,
      "ries": 2255,
      "gree": 2256,
      "cos": 2257,
      "yel": 2258,
      "large": 2259,
      "redu": 2260,
      "items": 2261,
      "french": 2262,
      "language": 2263,
      "actions": 2264,
      "ai": 2265,
      "finish": 2266,
      "mic": 2267,
      "volume": 2268,
      "wall": 2269,
      "wood": 2270,
      "tional": 2271,
      "emplo": 2272,
      "az": 2273,
      "recomm": 2274,
      "soci": 2275,
      "tor": 2276,
      "increase": 2277,
      "carbon": 2278,
      "standing": 2279,
      "fif": 2280,
      "bags": 2281,
      "nu": 2282,
      "paper": 2283,
      "sou": 2284,
      "partic": 2285,
      "ster": 2286,
      "hun": 2287,
      "rice": 2288,
      "stu": 2289,
      "recommend": 2290,
      "accurate": 2291,
      "valid": 2292,
      "publ": 2293,
      "sets": 2294,
      "job": 2295,
      "nes": 2296,
      "having": 2297,
      "factory": 2298,
      "flowers": 2299,
      "minute": 2300,
      "ires": 2301,
      "season": 2302,
      "70": 2303,
      "wind": 2304,
      "apple": 2305,
      "stree": 2306,
      "vert": 2307,
      "centre": 2308,
      "dialog": 2309,
      "dan": 2310,
      "inking": 2311,
      "examples": 2312,
      "ition": 2313,
      "keywords": 2314,
      "monday": 2315,
      "isomorphic": 2316,
      "wards": 2317,
      "penc": 2318,
      "mill": 2319,
      "atic": 2320,
      "jan": 2321,
      "sat": 2322,
      "75": 2323,
      "trip": 2324,
      "animal": 2325,
      "young": 2326,
      "reasonable": 2327,
      "din": 2328,
      "soc": 2329,
      "summarize": 2330,
      "today": 2331,
      "tru": 2332,
      "dimension": 2333,
      "keep": 2334,
      "ality": 2335,
      "molecular": 2336,
      "girl": 2337,
      "conne": 2338,
      "dru": 2339,
      "concentration": 2340,
      "kilo": 2341,
      "infe": 2342,
      "fill": 2343,
      "currently": 2344,
      "goes": 2345,
      "success": 2346,
      "dle": 2347,
      "vin": 2348,
      "patient": 2349,
      "location": 2350,
      "purch": 2351,
      "history": 2352,
      "science": 2353,
      "die": 2354,
      "compu": 2355,
      "including": 2356,
      "ads": 2357,
      "glass": 2358,
      "individ": 2359,
      "involved": 2360,
      "dou": 2361,
      "integers": 2362,
      "still": 2363,
      "ped": 2364,
      "sle": 2365,
      "price": 2366,
      "rier": 2367,
      "bit": 2368,
      "indian": 2369,
      "girls": 2370,
      "better": 2371,
      "games": 2372,
      "enth": 2373,
      "played": 2374,
      "elements": 2375,
      "apan": 2376,
      "ham": 2377,
      "works": 2378,
      "integer": 2379,
      "quar": 2380,
      "sell": 2381,
      "meet": 2382,
      "blood": 2383,
      "japan": 2384,
      "child": 2385,
      "beha": 2386,
      "ever": 2387,
      "boy": 2388,
      "facts": 2389,
      "gon": 2390,
      "vac": 2391,
      "ff": 2392,
      "unch": 2393,
      "begin": 2394,
      "coord": 2395,
      "ping": 2396,
      "full": 2397,
      "stri": 2398,
      "late": 2399,
      "hard": 2400,
      "wid": 2401,
      "draw": 2402,
      "behavi": 2403,
      "22": 2404,
      "cats": 2405,
      "method": 2406,
      "market": 2407,
      "oranges": 2408,
      "chlor": 2409,
      "formed": 2410,
      "improve": 2411,
      "discus": 2412,
      "4x": 2413,
      "original": 2414,
      "mr": 2415,
      "sequence": 2416,
      "descriptive": 2417,
      "represent": 2418,
      "orts": 2419,
      "express": 2420,
      "chick": 2421,
      "exactly": 2422,
      "relation": 2423,
      "lim": 2424,
      "ditions": 2425,
      "commun": 2426,
      "pizza": 2427,
      "hind": 2428,
      "conditions": 2429,
      "iment": 2430,
      "pal": 2431,
      "butes": 2432,
      "bul": 2433,
      "path": 2434,
      "mother": 2435,
      "ological": 2436,
      "trees": 2437,
      "teacher": 2438,
      "hair": 2439,
      "21": 2440,
      "described": 2441,
      "yellow": 2442,
      "piece": 2443,
      "itch": 2444,
      "attri": 2445,
      "convers": 2446,
      "pet": 2447,
      "share": 2448,
      "cording": 2449,
      "street": 2450,
      "gall": 2451,
      "abor": 2452,
      "requires": 2453,
      "super": 2454,
      "slices": 2455,
      "sky": 2456,
      "categ": 2457,
      "bob": 2458,
      "subject": 2459,
      "study": 2460,
      "ults": 2461,
      "mail": 2462,
      "happen": 2463,
      "growth": 2464,
      "associ": 2465,
      "del": 2466,
      "count": 2467,
      "weeks": 2468,
      "unit": 2469,
      "direct": 2470,
      "interest": 2471,
      "lon": 2472,
      "plications": 2473,
      "kj": 2474,
      "combined": 2475,
      "redi": 2476,
      "ingredi": 2477,
      "spend": 2478,
      "clean": 2479,
      "produces": 2480,
      "reach": 2481,
      "logical": 2482,
      "defined": 2483,
      "fou": 2484,
      "ana": 2485,
      "tles": 2486,
      "avor": 2487,
      "signific": 2488,
      "simil": 2489,
      "pan": 2490,
      "iety": 2491,
      "single": 2492,
      "important": 2493,
      "region": 2494,
      "running": 2495,
      "sister": 2496,
      "mechanisms": 2497,
      "sil": 2498,
      "tues": 2499,
      "lot": 2500,
      "synthesis": 2501,
      "angular": 2502,
      "edu": 2503,
      "boys": 2504,
      "multiple": 2505,
      "activity": 2506,
      "sample": 2507,
      "2y": 2508,
      "outs": 2509,
      "rope": 2510,
      "cakes": 2511,
      "taking": 2512,
      "ieve": 2513,
      "mass": 2514,
      "wash": 2515,
      "largest": 2516,
      "120": 2517,
      "32": 2518,
      "urs": 2519,
      "ars": 2520,
      "novel": 2521,
      "expression": 2522,
      "attributes": 2523,
      "natur": 2524,
      "histor": 2525,
      "fourier": 2526,
      "rol": 2527,
      "aster": 2528,
      "arri": 2529,
      "indu": 2530,
      "ada": 2531,
      "according": 2532,
      "pencils": 2533,
      "issu": 2534,
      "ready": 2535,
      "disease": 2536,
      "post": 2537,
      "cyclic": 2538,
      "include": 2539,
      "ns": 2540,
      "look": 2541,
      "hen": 2542,
      "response": 2543,
      "tu": 2544,
      "los": 2545,
      "joy": 2546,
      "39": 2547,
      "tar": 2548,
      "heat": 2549,
      "liz": 2550,
      "rock": 2551,
      "object": 2552,
      "content": 2553,
      "tuesday": 2554,
      "behind": 2555,
      "farm": 2556,
      "project": 2557,
      "reci": 2558,
      "characters": 2559,
      "prac": 2560,
      "fur": 2561,
      "ious": 2562,
      "chocol": 2563,
      "needed": 2564,
      "300": 2565,
      "evolution": 2566,
      "benefits": 2567,
      "arg": 2568,
      "behavior": 2569,
      "things": 2570,
      "pies": 2571,
      "once": 2572,
      "metric": 2573,
      "exer": 2574,
      "return": 2575,
      "result": 2576,
      "tw": 2577,
      "working": 2578,
      "eats": 2579,
      "stor": 2580,
      "smallest": 2581,
      "sides": 2582,
      "vent": 2583,
      "related": 2584,
      "sus": 2585,
      "enthal": 2586,
      "stick": 2587,
      "computer": 2588,
      "mach": 2589,
      "scal": 2590,
      "always": 2591,
      "dialogue": 2592,
      "ned": 2593,
      "ium": 2594,
      "jor": 2595,
      "morning": 2596,
      "circle": 2597,
      "dar": 2598,
      "imm": 2599,
      "birds": 2600,
      "office": 2601,
      "nit": 2602,
      "ran": 2603,
      "occur": 2604,
      "capital": 2605,
      "diag": 2606,
      "satis": 2607,
      "suitable": 2608,
      "fewer": 2609,
      "influ": 2610,
      "leaves": 2611,
      "chair": 2612,
      "code": 2613,
      "decision": 2614,
      "teen": 2615,
      "veget": 2616,
      "living": 2617,
      "similar": 2618,
      "humans": 2619,
      "atom": 2620,
      "bra": 2621,
      "buys": 2622,
      "ush": 2623,
      "called": 2624,
      "sleep": 2625,
      "sar": 2626,
      "bridge": 2627,
      "additional": 2628,
      "punct": 2629,
      "section": 2630,
      "48": 2631,
      "friday": 2632,
      "width": 2633,
      "received": 2634,
      "adap": 2635,
      "leader": 2636,
      "ax": 2637,
      "station": 2638,
      "older": 2639,
      "divided": 2640,
      "advan": 2641,
      "arti": 2642,
      "looking": 2643,
      "ren": 2644,
      "support": 2645,
      "cam": 2646,
      "ml": 2647,
      "emp": 2648,
      "gets": 2649,
      "rectangular": 2650,
      "analyze": 2651,
      "23": 2652,
      "fly": 2653,
      "enzy": 2654,
      "verse": 2655,
      "likely": 2656,
      "approxim": 2657,
      "methods": 2658,
      "iding": 2659,
      "born": 2660,
      "cles": 2661,
      "date": 2662,
      "social": 2663,
      "fire": 2664,
      "women": 2665,
      "sphere": 2666,
      "thor": 2667,
      "carefully": 2668,
      "weighs": 2669,
      "cake": 2670,
      "gal": 2671,
      "£20": 2672,
      "solu": 2673,
      "scored": 2674,
      "within": 2675,
      "jer": 2676,
      "football": 2677,
      "ler": 2678,
      "due": 2679,
      "mich": 2680,
      "alex": 2681,
      "came": 2682,
      "tries": 2683,
      "highest": 2684,
      "ral": 2685,
      "thinking": 2686,
      "board": 2687,
      "sever": 2688,
      "pressure": 2689,
      "perimeter": 2690,
      "enthalpy": 2691,
      "compl": 2692,
      "pret": 2693,
      "engine": 2694,
      "concept": 2695,
      "gives": 2696,
      "pay": 2697,
      "creative": 2698,
      "brain": 2699,
      "containing": 2700,
      "sports": 2701,
      "bb": 2702,
      "oce": 2703,
      "employe": 2704,
      "★★": 2705,
      "natural": 2706,
      "among": 2707,
      "particular": 2708,
      "public": 2709,
      "wednes": 2710,
      "wearing": 2711,
      "compose": 2712,
      "measure": 2713,
      "formula": 2714,
      "roll": 2715,
      "numer": 2716,
      "stop": 2717,
      "lost": 2718,
      "remo": 2719,
      "effects": 2720,
      "iso": 2721,
      "ury": 2722,
      "cups": 2723,
      "ward": 2724,
      "player": 2725,
      "techni": 2726,
      "ounces": 2727,
      "characteristic": 2728,
      "experience": 2729,
      "beach": 2730,
      "wanted": 2731,
      "appropri": 2732,
      "bic": 2733,
      "center": 2734,
      "electron": 2735,
      "h2": 2736,
      "lock": 2737,
      "conversation": 2738,
      "service": 2739,
      "ki": 2740,
      "appe": 2741,
      "clude": 2742,
      "yield": 2743,
      "relationship": 2744,
      "wednesday": 2745,
      "asked": 2746,
      "climate": 2747,
      "seconds": 2748,
      "emo": 2749,
      "ja": 2750,
      "ring": 2751,
      "calories": 2752,
      "italian": 2753,
      "km": 2754,
      "compe": 2755,
      "getting": 2756,
      "major": 2757,
      "products": 2758,
      "floor": 2759,
      "gro": 2760,
      "glo": 2761,
      "°c": 2762,
      "tank": 2763,
      "uming": 2764,
      "cataly": 2765,
      "analysis": 2766,
      "predict": 2767,
      "appropriate": 2768,
      "brit": 2769,
      "walking": 2770,
      "edges": 2771,
      "ming": 2772,
      "details": 2773,
      "eth": 2774,
      "conclude": 2775,
      "president": 2776,
      "clear": 2777,
      "ible": 2778,
      "few": 2779,
      "iting": 2780,
      "hmm": 2781,
      "call": 2782,
      "milk": 2783,
      "famous": 2784,
      "dish": 2785,
      "along": 2786,
      "little": 2787,
      "cafe": 2788,
      "kind": 2789,
      "smo": 2790,
      "lin": 2791,
      "bert": 2792,
      "recipe": 2793,
      "letter": 2794,
      "infections": 2795,
      "note": 2796,
      "outside": 2797,
      "1000": 2798,
      "transform": 2799,
      "hmmm": 2800,
      "ont": 2801,
      "minimum": 2802,
      "zen": 2803,
      "nic": 2804,
      "asing": 2805,
      "exper": 2806,
      "ials": 2807,
      "candy": 2808,
      "shar": 2809,
      "fruit": 2810,
      "favor": 2811,
      "cule": 2812,
      "ik": 2813,
      "econ": 2814,
      "enter": 2815,
      "travels": 2816,
      "physical": 2817,
      "ali": 2818,
      "econom": 2819,
      "molecule": 2820,
      "beans": 2821,
      "shirts": 2822,
      "jour": 2823,
      "26": 2824,
      "live": 2825,
      "mechanism": 2826,
      "dev": 2827,
      "instru": 2828,
      "forest": 2829,
      "active": 2830,
      "something": 2831,
      "punctuation": 2832,
      "150": 2833,
      "sells": 2834,
      "summer": 2835,
      "located": 2836,
      "past": 2837,
      "fourth": 2838,
      "road": 2839,
      "shirt": 2840,
      "29": 2841,
      "correctly": 2842,
      "jul": 2843,
      "score": 2844,
      "email": 2845,
      "sume": 2846,
      "ountain": 2847,
      "required": 2848,
      "sw": 2849,
      "lad": 2850,
      "entire": 2851,
      "triple": 2852,
      "til": 2853,
      "genetic": 2854,
      "bab": 2855,
      "ards": 2856,
      "atoes": 2857,
      "valu": 2858,
      "lines": 2859,
      "sour": 2860,
      "ended": 2861,
      "ocean": 2862,
      "ref": 2863,
      "allow": 2864,
      "chang": 2865,
      "taken": 2866,
      "systems": 2867,
      "od": 2868,
      "abol": 2869,
      "pective": 2870,
      "respective": 2871,
      "reading": 2872,
      "slow": 2873,
      "japanese": 2874,
      "cum": 2875,
      "jump": 2876,
      "oxy": 2877,
      "univers": 2878,
      "expect": 2879,
      "ork": 2880,
      "fies": 2881,
      "snow": 2882,
      "ell": 2883,
      "deli": 2884,
      "surv": 2885,
      "happy": 2886,
      "recor": 2887,
      "itu": 2888,
      "oxide": 2889,
      "cans": 2890,
      "pper": 2891,
      "rat": 2892,
      "jack": 2893,
      "mart": 2894,
      "gover": 2895,
      "comb": 2896,
      "resear": 2897,
      "3y": 2898,
      "law": 2899,
      "comes": 2900,
      "connect": 2901,
      "research": 2902,
      "bad": 2903,
      "sea": 2904,
      "basketball": 2905,
      "chocolate": 2906,
      "drug": 2907,
      "father": 2908,
      "hous": 2909,
      "tt": 2910,
      "mission": 2911,
      "polymer": 2912,
      "program": 2913,
      "fel": 2914,
      "pens": 2915,
      "compound": 2916,
      "tro": 2917,
      "provided": 2918,
      "seed": 2919,
      "club": 2920,
      "died": 2921,
      "condition": 2922,
      "400": 2923,
      "never": 2924,
      "sor": 2925,
      "ips": 2926,
      "catch": 2927,
      "dep": 2928,
      "ballo": 2929,
      "princi": 2930,
      "online": 2931,
      "solutions": 2932,
      "dollar": 2933,
      "react": 2934,
      "gradually": 2935,
      "sof": 2936,
      "coming": 2937,
      "ication": 2938,
      "features": 2939,
      "logic": 2940,
      "differences": 2941,
      "popular": 2942,
      "34": 2943,
      "fig": 2944,
      "gor": 2945,
      "bond": 2946,
      "bird": 2947,
      "adapt": 2948,
      "knowled": 2949,
      "camp": 2950,
      "sn": 2951,
      "dress": 2952,
      "ym": 2953,
      "verif": 2954,
      "quality": 2955,
      "abe": 2956,
      "race": 2957,
      "eating": 2958,
      "rad": 2959,
      "door": 2960,
      "pairs": 2961,
      "cold": 2962,
      "ficial": 2963,
      "importance": 2964,
      "voice": 2965,
      "augh": 2966,
      "thurs": 2967,
      "distin": 2968,
      "5x": 2969,
      "plac": 2970,
      "york": 2971,
      "bak": 2972,
      "cti": 2973,
      "female": 2974,
      "divis": 2975,
      "efficient": 2976,
      "apart": 2977,
      "months": 2978,
      "dam": 2979,
      "produced": 2980,
      "libr": 2981,
      "scale": 2982,
      "bol": 2983,
      "fal": 2984,
      "spo": 2985,
      "ending": 2986,
      "eas": 2987,
      "mand": 2988,
      "swi": 2989,
      "approximately": 2990,
      "kids": 2991,
      "oxygen": 2992,
      "rew": 2993,
      "stay": 2994,
      "wonder": 2995,
      "south": 2996,
      "immune": 2997,
      "lap": 2998,
      "vide": 2999,
      "anna": 3000,
      "pub": 3001,
      "thursday": 3002,
      "doesn": 3003,
      "inese": 3004,
      "opt": 3005,
      "considered": 3006,
      "heart": 3007,
      "golden": 3008,
      "theory": 3009,
      "protein": 3010,
      "fo": 3011,
      "lat": 3012,
      "pir": 3013,
      "chinese": 3014,
      "ago": 3015,
      "plays": 3016,
      "measures": 3017,
      "gi": 3018,
      "shel": 3019,
      "materials": 3020,
      "ses": 3021,
      "become": 3022,
      "spends": 3023,
      "profess": 3024,
      "strateg": 3025,
      "environmental": 3026,
      "control": 3027,
      "tax": 3028,
      "author": 3029,
      "mance": 3030,
      "assuming": 3031,
      "resist": 3032,
      "force": 3033,
      "extract": 3034,
      "geor": 3035,
      "deter": 3036,
      "dete": 3037,
      "mix": 3038,
      "houses": 3039,
      "mel": 3040,
      "efficiency": 3041,
      "ift": 3042,
      "fix": 3043,
      "oid": 3044,
      "tele": 3045,
      "island": 3046,
      "ival": 3047,
      "birthday": 3048,
      "satur": 3049,
      "sect": 3050,
      "wise": 3051,
      "strate": 3052,
      "north": 3053,
      "neu": 3054,
      "liters": 3055,
      "saw": 3056,
      "painting": 3057,
      "knowledge": 3058,
      "rb": 3059,
      "lower": 3060,
      "tv": 3061,
      "ratio": 3062,
      "bread": 3063,
      "mathem": 3064,
      "ingredients": 3065,
      "machine": 3066,
      "centi": 3067,
      "equili": 3068,
      "front": 3069,
      "maintain": 3070,
      "countries": 3071,
      "gallons": 3072,
      "aut": 3073,
      "grand": 3074,
      "positively": 3075,
      "instructions": 3076,
      "equilibri": 3077,
      "oh": 3078,
      "jar": 3079,
      "drive": 3080,
      "ights": 3081,
      "cray": 3082,
      "equilibrium": 3083,
      "2z": 3084,
      "already": 3085,
      "tics": 3086,
      "capac": 3087,
      "mile": 3088,
      "edit": 3089,
      "corpor": 3090,
      "diagno": 3091,
      "search": 3092,
      "treatment": 3093,
      "associated": 3094,
      "ica": 3095,
      "izing": 3096,
      "butter": 3097,
      "camer": 3098,
      "goo": 3099,
      "orange": 3100,
      "seen": 3101,
      "soccer": 3102,
      "cream": 3103,
      "diseases": 3104,
      "transport": 3105,
      "learning": 3106,
      "perfor": 3107,
      "negatively": 3108,
      "ussi": 3109,
      "perform": 3110,
      "jective": 3111,
      "def": 3112,
      "degree": 3113,
      "sitting": 3114,
      "middle": 3115,
      "ier": 3116,
      "mountain": 3117,
      "map": 3118,
      "zer": 3119,
      "lake": 3120,
      "electro": 3121,
      "members": 3122,
      "web": 3123,
      "jel": 3124,
      "asking": 3125,
      "opin": 3126,
      "deriv": 3127,
      "material": 3128,
      "mph": 3129,
      "ov": 3130,
      "didn": 3131,
      "decided": 3132,
      "simple": 3133,
      "ram": 3134,
      "swe": 3135,
      "seg": 3136,
      "characteristics": 3137,
      "minis": 3138,
      "players": 3139,
      "element": 3140,
      "various": 3141,
      "argument": 3142,
      "correspon": 3143,
      "percentage": 3144,
      "frequ": 3145,
      "viation": 3146,
      "consum": 3147,
      "double": 3148,
      "fut": 3149,
      "ror": 3150,
      "contr": 3151,
      "manag": 3152,
      "oil": 3153,
      "verb": 3154,
      "cancer": 3155,
      "ery": 3156,
      "recent": 3157,
      "across": 3158,
      "medical": 3159,
      "jelly": 3160,
      "inside": 3161,
      "format": 3162,
      "eyes": 3163,
      "acter": 3164,
      "compon": 3165,
      "drink": 3166,
      "mess": 3167,
      "signal": 3168,
      "tour": 3169,
      "image": 3170,
      "ills": 3171,
      "check": 3172,
      "reduce": 3173,
      "techniques": 3174,
      "cou": 3175,
      "hot": 3176,
      "necess": 3177,
      "uel": 3178,
      "levels": 3179,
      "visit": 3180,
      "bacter": 3181,
      "spent": 3182,
      "safe": 3183,
      "hr": 3184,
      "ture": 3185,
      "berries": 3186,
      "dia": 3187,
      "compared": 3188,
      "kg": 3189,
      "uals": 3190,
      "tel": 3191,
      "ave": 3192,
      "leg": 3193,
      "neigh": 3194,
      "prevent": 3195,
      "eag": 3196,
      "iron": 3197,
      "combine": 3198,
      "secre": 3199,
      "since": 3200,
      "dozen": 3201,
      "europe": 3202,
      "applications": 3203,
      "moderate": 3204,
      "really": 3205,
      "candies": 3206,
      "advanta": 3207,
      "izes": 3208,
      "news": 3209,
      "liter": 3210,
      "stickers": 3211,
      "covered": 3212,
      "var": 3213,
      "quant": 3214,
      "briefly": 3215,
      "lee": 3216,
      "runs": 3217,
      "quantum": 3218,
      "55": 3219,
      "cheap": 3220,
      "historical": 3221,
      "bum": 3222,
      "special": 3223,
      "strategies": 3224,
      "sound": 3225,
      "river": 3226,
      "report": 3227,
      "composition": 3228,
      "intell": 3229,
      "metabol": 3230,
      "pas": 3231,
      "dry": 3232,
      "intellig": 3233,
      "rist": 3234,
      "zz": 3235,
      "false": 3236,
      "idence": 3237,
      "heard": 3238,
      "electric": 3239,
      "written": 3240,
      "collected": 3241,
      "inn": 3242,
      "dies": 3243,
      "regular": 3244,
      "govern": 3245,
      "healthy": 3246,
      "crayons": 3247,
      "fac": 3248,
      "interval": 3249,
      "daily": 3250,
      "distinct": 3251,
      "capacity": 3252,
      "wide": 3253,
      "agon": 3254,
      "elabor": 3255,
      "match": 3256,
      "bottles": 3257,
      "enjoy": 3258,
      "cycle": 3259,
      "sandwi": 3260,
      "ameter": 3261,
      "anger": 3262,
      "cry": 3263,
      "ensical": 3264,
      "integr": 3265,
      "mam": 3266,
      "inste": 3267,
      "moon": 3268,
      "paint": 3269,
      "ech": 3270,
      "greater": 3271,
      "passage": 3272,
      "derivative": 3273,
      "collection": 3274,
      "hydrogen": 3275,
      "ison": 3276,
      "nons": 3277,
      "prom": 3278,
      "trying": 3279,
      "mit": 3280,
      "ives": 3281,
      "others": 3282,
      "ptom": 3283,
      "death": 3284,
      "carry": 3285,
      "ference": 3286,
      "phil": 3287,
      "exercise": 3288,
      "library": 3289,
      "cast": 3290,
      "hu": 3291,
      "nan": 3292,
      "often": 3293,
      "stain": 3294,
      "causes": 3295,
      "opinion": 3296,
      "elaborate": 3297,
      "stock": 3298,
      "symptom": 3299,
      "dinner": 3300,
      "tex": 3301,
      "caught": 3302,
      "educ": 3303,
      "eco": 3304,
      "tas": 3305,
      "justify": 3306,
      "individuals": 3307,
      "chall": 3308,
      "sugar": 3309,
      "mas": 3310,
      "viral": 3311,
      "performance": 3312,
      "span": 3313,
      "starting": 3314,
      "costs": 3315,
      "itude": 3316,
      "aq": 3317,
      "lowest": 3318,
      "electronic": 3319,
      "offer": 3320,
      "mathemat": 3321,
      "99": 3322,
      "ato": 3323,
      "page": 3324,
      "manage": 3325,
      "dest": 3326,
      "vious": 3327,
      "organic": 3328,
      "posed": 3329,
      "formulate": 3330,
      "replace": 3331,
      "vey": 3332,
      "iam": 3333,
      "jen": 3334,
      "bowl": 3335,
      "named": 3336,
      "lunch": 3337,
      "saturday": 3338,
      "nonsensical": 3339,
      "cis": 3340,
      "lind": 3341,
      "mad": 3342,
      "vill": 3343,
      "union": 3344,
      "ith": 3345,
      "exist": 3346,
      "waterman": 3347,
      "shoes": 3348,
      "tickets": 3349,
      "strong": 3350,
      "distribu": 3351,
      "symptoms": 3352,
      "metall": 3353,
      "fruits": 3354,
      "intersection": 3355,
      "imal": 3356,
      "employees": 3357,
      "ile": 3358,
      "inst": 3359,
      "tig": 3360,
      "quarter": 3361,
      "acc": 3362,
      "legs": 3363,
      "version": 3364,
      "fifteen": 3365,
      "determin": 3366,
      "hab": 3367,
      "poli": 3368,
      "global": 3369,
      "ared": 3370,
      "shor": 3371,
      "spect": 3372,
      "pattern": 3373,
      "cas": 3374,
      "hom": 3375,
      "tiliz": 3376,
      "ural": 3377,
      "perfect": 3378,
      "sarah": 3379,
      "vation": 3380,
      "grammat": 3381,
      "require": 3382,
      "cambridge": 3383,
      "corresponding": 3384,
      "fair": 3385,
      "usion": 3386,
      "tit": 3387,
      "digit": 3388,
      "overall": 3389,
      "72": 3390,
      "airport": 3391,
      "episo": 3392,
      "gle": 3393,
      "atory": 3394,
      "cel": 3395,
      "pool": 3396,
      "proteins": 3397,
      "optimized": 3398,
      "jane": 3399,
      "plas": 3400,
      "ker": 3401,
      "stat": 3402,
      "local": 3403,
      "accompl": 3404,
      "sales": 3405,
      "arrange": 3406,
      "video": 3407,
      "centimeters": 3408,
      "places": 3409,
      "amin": 3410,
      "jim": 3411,
      "anci": 3412,
      "increased": 3413,
      "receive": 3414,
      "accomplish": 3415,
      "lian": 3416,
      "micro": 3417,
      "sq": 3418,
      "speech": 3419,
      "yester": 3420,
      "evalu": 3421,
      "theore": 3422,
      "heav": 3423,
      "weather": 3424,
      "cogn": 3425,
      "functions": 3426,
      "government": 3427,
      "yesterday": 3428,
      "dollars": 3429,
      "definition": 3430,
      "arrive": 3431,
      "cows": 3432,
      "general": 3433,
      "modern": 3434,
      "coordination": 3435,
      "mod": 3436,
      "kilometers": 3437,
      "issue": 3438,
      "balloons": 3439,
      "buil": 3440,
      "ometry": 3441,
      "meeting": 3442,
      "started": 3443,
      "parts": 3444,
      "banan": 3445,
      "university": 3446,
      "altern": 3447,
      "exc": 3448,
      "corn": 3449,
      "media": 3450,
      "obtain": 3451,
      "abelian": 3452,
      "hit": 3453,
      "ried": 3454,
      "glasses": 3455,
      "hall": 3456,
      "aft": 3457,
      "sunday": 3458,
      "feed": 3459,
      "dium": 3460,
      "trave": 3461,
      "ensity": 3462,
      "angles": 3463,
      "audi": 3464,
      "bell": 3465,
      "paras": 3466,
      "neighbor": 3467,
      "doing": 3468,
      "ake": 3469,
      "whole": 3470,
      "acti": 3471,
      "item": 3472,
      "vision": 3473,
      "justifies": 3474,
      "decimal": 3475,
      "yard": 3476,
      "grade": 3477,
      "target": 3478,
      "sch": 3479,
      "model": 3480,
      "hyper": 3481,
      "formal": 3482,
      "international": 3483,
      "ancient": 3484,
      "manif": 3485,
      "several": 3486,
      "eagle": 3487,
      "served": 3488,
      "isa": 3489,
      "mathbb": 3490,
      "ena": 3491,
      "bike": 3492,
      "bath": 3493,
      "95": 3494,
      "ption": 3495,
      "user": 3496,
      "quick": 3497,
      "future": 3498,
      "eight": 3499,
      "organisms": 3500,
      "dx": 3501,
      "india": 3502,
      "significance": 3503,
      "85": 3504,
      "pul": 3505,
      "everyone": 3506,
      "ots": 3507,
      "journey": 3508,
      "previous": 3509,
      "modif": 3510,
      "card": 3511,
      "considering": 3512,
      "packs": 3513,
      "enh": 3514,
      "nomi": 3515,
      "county": 3516,
      "ko": 3517,
      "peter": 3518,
      "polynomi": 3519,
      "lou": 3520,
      "incorpor": 3521,
      "rectangle": 3522,
      "engineer": 3523,
      "fat": 3524,
      "rot": 3525,
      "segment": 3526,
      "means": 3527,
      "record": 3528,
      "shorter": 3529,
      "alge": 3530,
      "album": 3531,
      "sodium": 3532,
      "xic": 3533,
      "insect": 3534,
      "approach": 3535,
      "influence": 3536,
      "intelligence": 3537,
      "picked": 3538,
      "bananas": 3539,
      "sele": 3540,
      "marke": 3541,
      "algebra": 3542,
      "san": 3543,
      "cro": 3544,
      "dor": 3545,
      "nut": 3546,
      "worth": 3547,
      "bility": 3548,
      "shape": 3549,
      "course": 3550,
      "understanding": 3551,
      "chairs": 3552,
      "van": 3553,
      "afric": 3554,
      "65": 3555,
      "cool": 3556,
      "learn": 3557,
      "fle": 3558,
      "commit": 3559,
      "regul": 3560,
      "cheese": 3561,
      "advantages": 3562,
      "host": 3563,
      "ilities": 3564,
      "washing": 3565,
      "ests": 3566,
      "chicken": 3567,
      "ka": 3568,
      "farmer": 3569,
      "hands": 3570,
      "cher": 3571,
      "missing": 3572,
      "flower": 3573,
      "ama": 3574,
      "released": 3575,
      "changing": 3576,
      "prompt": 3577,
      "wild": 3578,
      "inks": 3579,
      "rid": 3580,
      "nearest": 3581,
      "iteration": 3582,
      "invest": 3583,
      "instead": 3584,
      "william": 3585,
      "bring": 3586,
      "colors": 3587,
      "competi": 3588,
      "repe": 3589,
      "vector": 3590,
      "cannot": 3591,
      "entity": 3592,
      "oth": 3593,
      "dom": 3594,
      "closed": 3595,
      "profession": 3596,
      "ctivity": 3597,
      "baby": 3598,
      "evaluate": 3599,
      "randomly": 3600,
      "42": 3601,
      "entific": 3602,
      "ride": 3603,
      "seven": 3604,
      "orders": 3605,
      "scientific": 3606,
      "block": 3607,
      "filled": 3608,
      "mac": 3609,
      "cules": 3610,
      "remainder": 3611,
      "customers": 3612,
      "marketing": 3613,
      "ental": 3614,
      "categor": 3615,
      "vies": 3616,
      "medic": 3617,
      "british": 3618,
      "lig": 3619,
      "fitz": 3620,
      "via": 3621,
      "songs": 3622,
      "dark": 3623,
      "condu": 3624,
      "pole": 3625,
      "expected": 3626,
      "chris": 3627,
      "prep": 3628,
      "wro": 3629,
      "added": 3630,
      "coordin": 3631,
      "hotel": 3632,
      "done": 3633,
      "presents": 3634,
      "jac": 3635,
      "until": 3636,
      "join": 3637,
      "molecules": 3638,
      "hed": 3639,
      "hood": 3640,
      "doctor": 3641,
      "tables": 3642,
      "rooms": 3643,
      "baseball": 3644,
      "wrote": 3645,
      "pand": 3646,
      "curv": 3647,
      "events": 3648,
      "primary": 3649,
      "resistance": 3650,
      "cross": 3651,
      "lie": 3652,
      "amps": 3653,
      "reasons": 3654,
      "kid": 3655,
      "conf": 3656,
      "tradi": 3657,
      "classes": 3658,
      "discuss": 3659,
      "respectively": 3660,
      "64": 3661,
      "critic": 3662,
      "33": 3663,
      "lers": 3664,
      "alice": 3665,
      "movies": 3666,
      "chickens": 3667,
      "dire": 3668,
      "simpl": 3669,
      "necessary": 3670,
      "solid": 3671,
      "compute": 3672,
      "cot": 3673,
      "plied": 3674,
      "aging": 3675,
      "brea": 3676,
      "joe": 3677,
      "grocer": 3678,
      "variety": 3679,
      "manifold": 3680,
      "poll": 3681,
      "rule": 3682,
      "range": 3683,
      "fort": 3684,
      "improv": 3685,
      "cartes": 3686,
      "starts": 3687,
      "kitch": 3688,
      "account": 3689,
      "manu": 3690,
      "roman": 3691,
      "resul": 3692,
      "vities": 3693,
      "components": 3694,
      "rome": 3695,
      "separ": 3696,
      "stry": 3697,
      "harry": 3698,
      "walked": 3699,
      "industry": 3700,
      "dance": 3701,
      "china": 3702,
      "cartesian": 3703,
      "gain": 3704,
      "magn": 3705,
      "whose": 3706,
      "otes": 3707,
      "lives": 3708,
      "250": 3709,
      "letters": 3710,
      "christ": 3711,
      "shopping": 3712,
      "activities": 3713,
      "central": 3714,
      "kitchen": 3715,
      "assume": 3716,
      "37": 3717,
      "hat": 3718,
      "jord": 3719,
      "longer": 3720,
      "watching": 3721,
      "seeds": 3722,
      "plement": 3723,
      "bars": 3724,
      "wondering": 3725,
      "polynomial": 3726,
      "solar": 3727,
      "differential": 3728,
      "individual": 3729,
      "artificial": 3730,
      "dav": 3731,
      "cket": 3732,
      "convert": 3733,
      "deep": 3734,
      "phy": 3735,
      "placed": 3736,
      "contrast": 3737,
      "sec": 3738,
      "wheel": 3739,
      "silver": 3740,
      "ague": 3741,
      "ussian": 3742,
      "bil": 3743,
      "giving": 3744,
      "planet": 3745,
      "medi": 3746,
      "adam": 3747,
      "decre": 3748,
      "experiment": 3749,
      "straw": 3750,
      "enough": 3751,
      "feeling": 3752,
      "connected": 3753,
      "texas": 3754,
      "tha": 3755,
      "parti": 3756,
      "factual": 3757,
      "fifth": 3758,
      "jordan": 3759,
      "ael": 3760,
      "tons": 3761,
      "beads": 3762,
      "relev": 3763,
      "ix": 3764,
      "tures": 3765,
      "smooth": 3766,
      "revol": 3767,
      "personal": 3768,
      "situation": 3769,
      "billies": 3770,
      "kilograms": 3771,
      "fre": 3772,
      "hydr": 3773,
      "sey": 3774,
      "respect": 3775,
      "finan": 3776,
      "civ": 3777,
      "uary": 3778,
      "waste": 3779,
      "early": 3780,
      "fitzbillies": 3781,
      "manufact": 3782,
      "robin": 3783,
      "ordered": 3784,
      "holding": 3785,
      "dimensional": 3786,
      "arian": 3787,
      "close": 3788,
      "intro": 3789,
      "h2o": 3790,
      "nutri": 3791,
      "mut": 3792,
      "pound": 3793,
      "tice": 3794,
      "college": 3795,
      "aust": 3796,
      "3z": 3797,
      "nature": 3798,
      "quad": 3799,
      "anced": 3800,
      "mom": 3801,
      "essay": 3802,
      "younger": 3803,
      "google": 3804,
      "ked": 3805,
      "lip": 3806,
      "package": 3807,
      "bank": 3808,
      "toy": 3809,
      "cript": 3810,
      "rows": 3811,
      "significant": 3812,
      "ald": 3813,
      "symmetric": 3814,
      "rab": 3815,
      "driving": 3816,
      "believe": 3817,
      "categorize": 3818,
      "scen": 3819,
      "east": 3820,
      "michael": 3821,
      "setting": 3822,
      "understand": 3823,
      "jes": 3824,
      "algor": 3825,
      "algorith": 3826,
      "bottle": 3827,
      "hip": 3828,
      "ares": 3829,
      "sustain": 3830,
      "tomatoes": 3831,
      "higher": 3832,
      "successful": 3833,
      "sav": 3834,
      "spir": 3835,
      "consist": 3836,
      "risk": 3837,
      "adaptations": 3838,
      "cube": 3839,
      "dead": 3840,
      "cru": 3841,
      "magne": 3842,
      "lands": 3843,
      "america": 3844,
      "additionally": 3845,
      "empty": 3846,
      "metallo": 3847,
      "parents": 3848,
      "betes": 3849,
      "diabetes": 3850,
      "44": 3851,
      "kend": 3852,
      "ert": 3853,
      "pretend": 3854,
      "inc": 3855,
      "96": 3856,
      "greatest": 3857,
      "photochemical": 3858,
      "egg": 3859,
      "rich": 3860,
      "breakfast": 3861,
      "resulting": 3862,
      "enced": 3863,
      "ically": 3864,
      "crow": 3865,
      "minister": 3866,
      "theorem": 3867,
      "flour": 3868,
      "artist": 3869,
      "52": 3870,
      "implement": 3871,
      "brand": 3872,
      "ores": 3873,
      "constru": 3874,
      "rou": 3875,
      "tan": 3876,
      "alle": 3877,
      "assist": 3878,
      "worked": 3879,
      "bes": 3880,
      "pac": 3881,
      "spl": 3882,
      "tural": 3883,
      "frequency": 3884,
      "education": 3885,
      "purchase": 3886,
      "yards": 3887,
      "stability": 3888,
      "rical": 3889,
      "itely": 3890,
      "dioxide": 3891,
      "pread": 3892,
      "equally": 3893,
      "secret": 3894,
      "sul": 3895,
      "promo": 3896,
      "wait": 3897,
      "grass": 3898,
      "strength": 3899,
      "otherwise": 3900,
      "mike": 3901,
      "velo": 3902,
      "factually": 3903,
      "180": 3904,
      "4y": 3905,
      "copper": 3906,
      "track": 3907,
      "depend": 3908,
      "density": 3909,
      "tone": 3910,
      "ino": 3911,
      "aged": 3912,
      "counter": 3913,
      "nuclear": 3914,
      "financial": 3915,
      "ky": 3916,
      "mention": 3917,
      "cellular": 3918,
      "jess": 3919,
      "vary": 3920,
      "west": 3921,
      "rogen": 3922,
      "communication": 3923,
      "ray": 3924,
      "tay": 3925,
      "sequences": 3926,
      "management": 3927,
      "ensure": 3928,
      "198": 3929,
      "towards": 3930,
      "achieve": 3931,
      "ior": 3932,
      "altogether": 3933,
      "ribut": 3934,
      "concer": 3935,
      "wave": 3936,
      "scre": 3937,
      "reactions": 3938,
      "shakes": 3939,
      "aliment": 3940,
      "serving": 3941,
      "increasing": 3942,
      "favorite": 3943,
      "alimentum": 3944,
      "addis": 3945,
      "storm": 3946,
      "vegetables": 3947,
      "fallacy": 3948,
      "idgets": 3949,
      "later": 3950,
      "mechanical": 3951,
      "plication": 3952,
      "38": 3953,
      "widgets": 3954,
      "profit": 3955,
      "enzymes": 3956,
      "slowly": 3957,
      "compre": 3958,
      "paul": 3959,
      "rt": 3960,
      "vict": 3961,
      "dream": 3962,
      "rene": 3963,
      "holiday": 3964,
      "56": 3965,
      "accep": 3966,
      "preced": 3967,
      "respond": 3968,
      "twent": 3969,
      "subst": 3970,
      "warm": 3971,
      "million": 3972,
      "softw": 3973,
      "twenty": 3974,
      "canada": 3975,
      "graphy": 3976,
      "software": 3977,
      "drinks": 3978,
      "locks": 3979,
      "happened": 3980,
      "radio": 3981,
      "activ": 3982,
      "figure": 3983,
      "daugh": 3984,
      "ets": 3985,
      "myster": 3986,
      "theme": 3987,
      "presence": 3988,
      "decides": 3989,
      "bacteria": 3990,
      "traveled": 3991,
      "itary": 3992,
      "complement": 3993,
      "25°c": 3994,
      "interesting": 3995,
      "kill": 3996,
      "pm": 3997,
      "pha": 3998,
      "ators": 3999,
      "rose": 4000,
      "iling": 4001,
      "specifically": 4002,
      "squares": 4003,
      "enhance": 4004,
      "sad": 4005,
      "wrest": 4006,
      "tool": 4007,
      "factor": 4008,
      "battle": 4009,
      "construction": 4010,
      "taylor": 4011,
      "hill": 4012,
      "wil": 4013,
      "cities": 4014,
      "smaller": 4015,
      "kat": 4016,
      "onto": 4017,
      "onom": 4018,
      "meal": 4019,
      "predic": 4020,
      "assign": 4021,
      "ief": 4022,
      "ideas": 4023,
      "dney": 4024,
      "pmatrix": 4025,
      "lemon": 4026,
      "stress": 4027,
      "idea": 4028,
      "sqrt": 4029,
      "alan": 4030,
      "leave": 4031,
      "hear": 4032,
      "scient": 4033,
      "digits": 4034,
      "lun": 4035,
      "cubic": 4036,
      "inj": 4037,
      "sier": 4038,
      "vacation": 4039,
      "lan": 4040,
      "nal": 4041,
      "names": 4042,
      "ored": 4043,
      "soda": 4044,
      "£30": 4045,
      "champ": 4046,
      "throw": 4047,
      "optimize": 4048,
      "bud": 4049,
      "adults": 4050,
      "century": 4051,
      "introdu": 4052,
      "mind": 4053,
      "stars": 4054,
      "chloride": 4055,
      "george": 4056,
      "o2": 4057,
      "cylind": 4058,
      "mechanics": 4059,
      "jason": 4060,
      "nis": 4061,
      "pins": 4062,
      "plans": 4063,
      "noon": 4064,
      "afterwards": 4065,
      "advent": 4066,
      "hur": 4067,
      "listen": 4068,
      "slo": 4069,
      "resour": 4070,
      "liqu": 4071,
      "smart": 4072,
      "fication": 4073,
      "roses": 4074,
      "chips": 4075,
      "stamps": 4076,
      "ctors": 4077,
      "absor": 4078,
      "resh": 4079,
      "problems": 4080,
      "cele": 4081,
      "village": 4082,
      "spread": 4083,
      "diffic": 4084,
      "owns": 4085,
      "2000": 4086,
      "bai": 4087,
      "diameter": 4088,
      "dynam": 4089,
      "fied": 4090,
      "purchased": 4091,
      "television": 4092,
      "aphr": 4093,
      "soil": 4094,
      "triples": 4095,
      "ances": 4096,
      "civil": 4097,
      "aqu": 4098,
      "posite": 4099,
      "musical": 4100,
      "curvature": 4101,
      "600": 4102,
      "shells": 4103,
      "brought": 4104,
      "curry": 4105,
      "economic": 4106,
      "fight": 4107,
      "hop": 4108,
      "chur": 4109,
      "internet": 4110,
      "police": 4111,
      "6x": 4112,
      "rick": 4113,
      "evidence": 4114,
      "walks": 4115,
      "bits": 4116,
      "remove": 4117,
      "abbre": 4118,
      "nel": 4119,
      "salt": 4120,
      "relevant": 4121,
      "nie": 4122,
      "pig": 4123,
      "asha": 4124,
      "nia": 4125,
      "chro": 4126,
      "larger": 4127,
      "increases": 4128,
      "coo": 4129,
      "amaz": 4130,
      "created": 4131,
      "cupcakes": 4132,
      "thes": 4133,
      "inves": 4134,
      "talk": 4135,
      "forms": 4136,
      "classroom": 4137,
      "lying": 4138,
      "genre": 4139,
      "talking": 4140,
      "message": 4141,
      "rank": 4142,
      "oph": 4143,
      "god": 4144,
      "blocks": 4145,
      "mber": 4146,
      "va": 4147,
      "save": 4148,
      "decide": 4149,
      "iii": 4150,
      "challeng": 4151,
      "enzyme": 4152,
      "bun": 4153,
      "itation": 4154,
      "principles": 4155,
      "encing": 4156,
      "frank": 4157,
      "advice": 4158,
      "consequences": 4159,
      "stra": 4160,
      "caused": 4161,
      "78": 4162,
      "gift": 4163,
      "utiliz": 4164,
      "eaten": 4165,
      "continu": 4166,
      "casey": 4167,
      "built": 4168,
      "scenari": 4169,
      "sort": 4170,
      "usually": 4171,
      "flat": 4172,
      "sale": 4173,
      "press": 4174,
      "kar": 4175,
      "tee": 4176,
      "desk": 4177,
      "string": 4178,
      "diet": 4179,
      "traditional": 4180,
      "ites": 4181,
      "follows": 4182,
      "german": 4183,
      "bile": 4184,
      "outline": 4185,
      "survival": 4186,
      "manager": 4187,
      "algorithm": 4188,
      "pink": 4189,
      "france": 4190,
      "weekend": 4191,
      "iterations": 4192,
      "grammar": 4193,
      "ails": 4194,
      "magnetic": 4195,
      "clar": 4196,
      "former": 4197,
      "describing": 4198,
      "glu": 4199,
      "algebraic": 4200,
      "pants": 4201,
      "release": 4202,
      "numerical": 4203,
      "iable": 4204,
      "lic": 4205,
      "align": 4206,
      "austr": 4207,
      "cali": 4208,
      "normal": 4209,
      "males": 4210,
      "4z": 4211,
      "uts": 4212,
      "neck": 4213,
      "processes": 4214,
      "mming": 4215,
      "symbol": 4216,
      "bing": 4217,
      "cd": 4218,
      "deal": 4219,
      "addison": 4220,
      "celebr": 4221,
      "nice": 4222,
      "pup": 4223,
      "iss": 4224,
      "bake": 4225,
      "drives": 4226,
      "ged": 4227,
      "ification": 4228,
      "singer": 4229,
      "lla": 4230,
      "flight": 4231,
      "31": 4232,
      "yet": 4233,
      "prepar": 4234,
      "austin": 4235,
      "church": 4236,
      "98": 4237,
      "labor": 4238,
      "happens": 4239,
      "bound": 4240,
      "hic": 4241,
      "kay": 4242,
      "prefer": 4243,
      "strada": 4244,
      "sydney": 4245,
      "enix": 4246,
      "ife": 4247,
      "abbreviation": 4248,
      "rup": 4249,
      "mobile": 4250,
      "applied": 4251,
      "interactions": 4252,
      "seum": 4253,
      "studying": 4254,
      "heavy": 4255,
      "however": 4256,
      "moving": 4257,
      "professional": 4258,
      "stage": 4259,
      "tail": 4260,
      "disco": 4261,
      "verifiable": 4262,
      "cameron": 4263,
      "76": 4264,
      "coins": 4265,
      "haus": 4266,
      "paraphr": 4267,
      "structures": 4268,
      "pil": 4269,
      "scor": 4270,
      "london": 4271,
      "austral": 4272,
      "lets": 4273,
      "craft": 4274,
      "polog": 4275,
      "drop": 4276,
      "deliver": 4277,
      "velocity": 4278,
      "zed": 4279,
      "meat": 4280,
      "tomor": 4281,
      "definitely": 4282,
      "sem": 4283,
      "mathematical": 4284,
      "episodes": 4285,
      "fan": 4286,
      "noun": 4287,
      "err": 4288,
      "hosp": 4289,
      "training": 4290,
      "scene": 4291,
      "xy": 4292,
      "generated": 4293,
      "reads": 4294,
      "community": 4295,
      "appear": 4296,
      "catalyst": 4297,
      "comprehen": 4298,
      "investig": 4299,
      "vehic": 4300,
      "beau": 4301,
      "rie": 4302,
      "buying": 4303,
      "balance": 4304,
      "fresh": 4305,
      "elim": 4306,
      "balanced": 4307,
      "society": 4308,
      "habit": 4309,
      "straight": 4310,
      "hats": 4311,
      "phoenix": 4312,
      "zi": 4313,
      "dot": 4314,
      "critical": 4315,
      "matt": 4316,
      "accident": 4317,
      "fence": 4318,
      "ised": 4319,
      "leo": 4320,
      "trivia": 4321,
      "candid": 4322,
      "wrestlers": 4323,
      "wel": 4324,
      "occurr": 4325,
      "purple": 4326,
      "nitrogen": 4327,
      "pinski": 4328,
      "ita": 4329,
      "results": 4330,
      "jose": 4331,
      "synthe": 4332,
      "drugs": 4333,
      "direction": 4334,
      "revolution": 4335,
      "tomorrow": 4336,
      "dad": 4337,
      "rap": 4338,
      "thern": 4339,
      "fran": 4340,
      "sierpinski": 4341,
      "aid": 4342,
      "mexic": 4343,
      "parame": 4344,
      "sport": 4345,
      "holds": 4346,
      "parasi": 4347,
      "califor": 4348,
      "tian": 4349,
      "cone": 4350,
      "gry": 4351,
      "jecti": 4352,
      "european": 4353,
      "cow": 4354,
      "cases": 4355,
      "rhy": 4356,
      "concise": 4357,
      "eleph": 4358,
      "june": 4359,
      "comprehensive": 4360,
      "parasitic": 4361,
      "ony": 4362,
      "atmo": 4363,
      "answering": 4364,
      "apor": 4365,
      "speak": 4366,
      "passed": 4367,
      "inch": 4368,
      "tray": 4369,
      "carson": 4370,
      "calculations": 4371,
      "network": 4372,
      "ributed": 4373,
      "secur": 4374,
      "bran": 4375,
      "gum": 4376,
      "toys": 4377,
      "league": 4378,
      "peace": 4379,
      "load": 4380,
      "emily": 4381,
      "autom": 4382,
      "owner": 4383,
      "fiction": 4384,
      "clothes": 4385,
      "54": 4386,
      "sess": 4387,
      "physics": 4388,
      "swimming": 4389,
      "grammatical": 4390,
      "hint": 4391,
      "belong": 4392,
      "lling": 4393,
      "apartment": 4394,
      "conver": 4395,
      "guide": 4396,
      "window": 4397,
      "loss": 4398,
      "strategy": 4399,
      "california": 4400,
      "dur": 4401,
      "jef": 4402,
      "ission": 4403,
      "throughout": 4404,
      "obtained": 4405,
      "05": 4406,
      "htt": 4407,
      "jav": 4408,
      "cutive": 4409,
      "vacc": 4410,
      "washington": 4411,
      "mode": 4412,
      "photosynthesis": 4413,
      "banana": 4414,
      "phen": 4415,
      "museum": 4416,
      "affected": 4417,
      "puzz": 4418,
      "astr": 4419,
      "cob": 4420,
      "issues": 4421,
      "pict": 4422,
      "insul": 4423,
      "guests": 4424,
      "latest": 4425,
      "clou": 4426,
      "emy": 4427,
      "verified": 4428,
      "divisible": 4429,
      "interview": 4430,
      "environments": 4431,
      "sugges": 4432,
      "competition": 4433,
      "ients": 4434,
      "tips": 4435,
      "turned": 4436,
      "source": 4437,
      "david": 4438,
      "picture": 4439,
      "eli": 4440,
      "brey": 4441,
      "numeric": 4442,
      "preceding": 4443,
      "juice": 4444,
      "discussing": 4445,
      "66": 4446,
      "topolog": 4447,
      "march": 4448,
      "shows": 4449,
      "selves": 4450,
      "instr": 4451,
      "tea": 4452,
      "cape": 4453,
      "security": 4454,
      "mou": 4455,
      "movement": 4456,
      "maintaining": 4457,
      "passive": 4458,
      "beauti": 4459,
      "rach": 4460,
      "alpha": 4461,
      "aubrey": 4462,
      "charge": 4463,
      "protect": 4464,
      "maybe": 4465,
      "fred": 4466,
      "remy": 4467,
      "horse": 4468,
      "odd": 4469,
      "hors": 4470,
      "script": 4471,
      "reconstruct": 4472,
      "ille": 4473,
      "opposite": 4474,
      "emer": 4475,
      "mir": 4476,
      "sasha": 4477,
      "quinn": 4478,
      "pets": 4479,
      "demon": 4480,
      "implic": 4481,
      "tense": 4482,
      "gym": 4483,
      "taste": 4484,
      "engineering": 4485,
      "hospital": 4486,
      "aar": 4487,
      "zo": 4488,
      "projective": 4489,
      "synon": 4490,
      "cryst": 4491,
      "sna": 4492,
      "plat": 4493,
      "perce": 4494,
      "ounce": 4495,
      "fraction": 4496,
      "skin": 4497,
      "webs": 4498,
      "fungal": 4499,
      "jectives": 4500,
      "site": 4501,
      "chance": 4502,
      "trigon": 4503,
      "extracted": 4504,
      "sandwich": 4505,
      "kel": 4506,
      "aches": 4507,
      "spice": 4508,
      "venue": 4509,
      "attack": 4510,
      "grocery": 4511,
      "liquid": 4512,
      "advert": 4513,
      "indic": 4514,
      "loved": 4515,
      "muscle": 4516,
      "errors": 4517,
      "faces": 4518,
      "arc": 4519,
      "socks": 4520,
      "marks": 4521,
      "traveling": 4522,
      "ril": 4523,
      "forces": 4524,
      "actor": 4525,
      "matter": 4526,
      "sources": 4527,
      "distribution": 4528,
      "scenario": 4529,
      "implicit": 4530,
      "ging": 4531,
      "ander": 4532,
      "england": 4533,
      "kendall": 4534,
      "kept": 4535,
      "finally": 4536,
      "owned": 4537,
      "vention": 4538,
      "ond": 4539,
      "estim": 4540,
      "max": 4541,
      "quarters": 4542,
      "tired": 4543,
      "alco": 4544,
      "plate": 4545,
      "ished": 4546,
      "compounds": 4547,
      "translate": 4548,
      "browns": 4549,
      "bf": 4550,
      "kim": 4551,
      "doc": 4552,
      "doors": 4553,
      "tracy": 4554,
      "spring": 4555,
      "rrb": 4556,
      "ulations": 4557,
      "dra": 4558,
      "themselves": 4559,
      "archite": 4560,
      "focus": 4561,
      "insects": 4562,
      "lrb": 4563,
      "ww": 4564,
      "wire": 4565,
      "paralle": 4566,
      "upon": 4567,
      "finding": 4568,
      "wedding": 4569,
      "ero": 4570,
      "andrew": 4571,
      "comput": 4572,
      "waiting": 4573,
      "website": 4574,
      "63": 4575,
      "told": 4576,
      "seats": 4577,
      "arith": 4578,
      "blog": 4579,
      "phas": 4580,
      "tou": 4581,
      "quo": 4582,
      "steve": 4583,
      "explor": 4584,
      "purpose": 4585,
      "objects": 4586,
      "couple": 4587,
      "spanish": 4588,
      "len": 4589,
      "winter": 4590,
      "afternoon": 4591,
      "puts": 4592,
      "planted": 4593,
      "inno": 4594,
      "sheep": 4595,
      "ingredient": 4596,
      "neutr": 4597,
      "respir": 4598,
      "political": 4599,
      "quickly": 4600,
      "screen": 4601,
      "fant": 4602,
      "arms": 4603,
      "crack": 4604,
      "dorff": 4605,
      "improved": 4606,
      "rachel": 4607,
      "ded": 4608,
      "jun": 4609,
      "sibl": 4610,
      "workers": 4611,
      "regulation": 4612,
      "jesse": 4613,
      "represents": 4614,
      "genus": 4615,
      "creating": 4616,
      "divide": 4617,
      "jay": 4618,
      "sick": 4619,
      "atten": 4620,
      "refer": 4621,
      "robert": 4622,
      "cardi": 4623,
      "roid": 4624,
      "seem": 4625,
      "invent": 4626,
      "daughter": 4627,
      "cab": 4628,
      "hon": 4629,
      "berry": 4630,
      "auto": 4631,
      "practice": 4632,
      "hausdorff": 4633,
      "las": 4634,
      "military": 4635,
      "simply": 4636,
      "pyth": 4637,
      "nuts": 4638,
      "tens": 4639,
      "beth": 4640,
      "selected": 4641,
      "agr": 4642,
      "geometry": 4643,
      "solving": 4644,
      "migr": 4645,
      "commer": 4646,
      "potatoes": 4647,
      "address": 4648,
      "drove": 4649,
      "passeng": 4650,
      "windows": 4651,
      "bathroom": 4652,
      "yal": 4653,
      "itar": 4654,
      "pla": 4655,
      "compan": 4656,
      "skills": 4657,
      "responsible": 4658,
      "bailey": 4659,
      "kai": 4660,
      "lam": 4661,
      "jerry": 4662,
      "felt": 4663,
      "recogn": 4664,
      "iring": 4665,
      "court": 4666,
      "tower": 4667,
      "sty": 4668,
      "olive": 4669,
      "cept": 4670,
      "lady": 4671,
      "substance": 4672,
      "areas": 4673,
      "pyram": 4674,
      "neuro": 4675,
      "transportation": 4676,
      "cents": 4677,
      "adult": 4678,
      "thane": 4679,
      "coordinates": 4680,
      "rocks": 4681,
      "transmission": 4682,
      "root": 4683,
      "categories": 4684,
      "detective": 4685,
      "billy": 4686,
      "92": 4687,
      "jud": 4688,
      "pical": 4689,
      "assem": 4690,
      "commonly": 4691,
      "hund": 4692,
      "selling": 4693,
      "prepare": 4694,
      "beautiful": 4695,
      "vic": 4696,
      "edge": 4697,
      "sho": 4698,
      "genes": 4699,
      "cultural": 4700,
      "winning": 4701,
      "effectively": 4702,
      "resid": 4703,
      "adding": 4704,
      "digital": 4705,
      "jellybeans": 4706,
      "audience": 4707,
      "physi": 4708,
      "arm": 4709,
      "lose": 4710,
      "affe": 4711,
      "fictional": 4712,
      "burger": 4713,
      "limit": 4714,
      "shelf": 4715,
      "simplify": 4716,
      "cooking": 4717,
      "perceived": 4718,
      "independ": 4719,
      "matic": 4720,
      "vertex": 4721,
      "push": 4722,
      "italy": 4723,
      "hex": 4724,
      "ampl": 4725,
      "agree": 4726,
      "kingdom": 4727,
      "resources": 4728,
      "uk": 4729,
      "pers": 4730,
      "grav": 4731,
      "marine": 4732,
      "oxid": 4733,
      "77": 4734,
      "fail": 4735,
      "nick": 4736,
      "otic": 4737,
      "pond": 4738,
      "says": 4739,
      "mur": 4740,
      "mals": 4741,
      "psy": 4742,
      "dice": 4743,
      "consists": 4744,
      "container": 4745,
      "excited": 4746,
      "58": 4747,
      "sex": 4748,
      "ryan": 4749,
      "5y": 4750,
      "ae": 4751,
      "nations": 4752,
      "adjectives": 4753,
      "motor": 4754,
      "apply": 4755,
      "lengths": 4756,
      "mammals": 4757,
      "gluco": 4758,
      "lights": 4759,
      "comed": 4760,
      "mouth": 4761,
      "roots": 4762,
      "employ": 4763,
      "truck": 4764,
      "committee": 4765,
      "glucose": 4766,
      "stone": 4767,
      "extre": 4768,
      "print": 4769,
      "fash": 4770,
      "rolls": 4771,
      "haik": 4772,
      "occurring": 4773,
      "zoo": 4774,
      "demand": 4775,
      "therap": 4776,
      "plastic": 4777,
      "mentioned": 4778,
      "melon": 4779,
      "split": 4780,
      "ently": 4781,
      "became": 4782,
      "suf": 4783,
      "particip": 4784,
      "devices": 4785,
      "patterns": 4786,
      "fashion": 4787,
      "beat": 4788,
      "meanings": 4789,
      "clothing": 4790,
      "periodic": 4791,
      "further": 4792,
      "safety": 4793,
      "dough": 4794,
      "kin": 4795,
      "tch": 4796,
      "goals": 4797,
      "baked": 4798,
      "rul": 4799,
      "bind": 4800,
      "zing": 4801,
      "fell": 4802,
      "gust": 4803,
      "tang": 4804,
      "inary": 4805,
      "consume": 4806,
      "guess": 4807,
      "measuring": 4808,
      "motion": 4809,
      "appoint": 4810,
      "mental": 4811,
      "cris": 4812,
      "broken": 4813,
      "ford": 4814,
      "deck": 4815,
      "49": 4816,
      "discovered": 4817,
      "tennis": 4818,
      "occup": 4819,
      "emotions": 4820,
      "fantas": 4821,
      "pine": 4822,
      "rent": 4823,
      "convey": 4824,
      "access": 4825,
      "likes": 4826,
      "skylar": 4827,
      "haiku": 4828,
      "riding": 4829,
      "ghts": 4830,
      "ensions": 4831,
      "writer": 4832,
      "baking": 4833,
      "sweet": 4834,
      "68": 4835,
      "hang": 4836,
      "avoid": 4837,
      "colum": 4838,
      "ladder": 4839,
      "architect": 4840,
      "basic": 4841,
      "flag": 4842,
      "stuff": 4843,
      "hus": 4844,
      "metic": 4845,
      "clin": 4846,
      "tony": 4847,
      "emotion": 4848,
      "hes": 4849,
      "ware": 4850,
      "eric": 4851,
      "blan": 4852,
      "limited": 4853,
      "renew": 4854,
      "votes": 4855,
      "producing": 4856,
      "emic": 4857,
      "dragon": 4858,
      "file": 4859,
      "division": 4860,
      "regulate": 4861,
      "aaron": 4862,
      "dir": 4863,
      "lol": 4864,
      "coin": 4865,
      "istan": 4866,
      "ston": 4867,
      "bee": 4868,
      "differenti": 4869,
      "opened": 4870,
      "exercis": 4871,
      "quadr": 4872,
      "spot": 4873,
      "iden": 4874,
      "held": 4875,
      "amy": 4876,
      "geo": 4877,
      "cuts": 4878,
      "foreign": 4879,
      "batter": 4880,
      "pathways": 4881,
      "bicy": 4882,
      "parameters": 4883,
      "scr": 4884,
      "bear": 4885,
      "compar": 4886,
      "dimensions": 4887,
      "easy": 4888,
      "african": 4889,
      "conduct": 4890,
      "rise": 4891,
      "tam": 4892,
      "inqu": 4893,
      "ceed": 4894,
      "co2": 4895,
      "laptop": 4896,
      "horses": 4897,
      "mc": 4898,
      "sli": 4899,
      "copy": 4900,
      "defective": 4901,
      "weak": 4902,
      "highlight": 4903,
      "neighborhood": 4904,
      "smi": 4905,
      "zero": 4906,
      "ape": 4907,
      "blow": 4908,
      "quiz": 4909,
      "culture": 4910,
      "directed": 4911,
      "atmosphere": 4912,
      "hero": 4913,
      "cotto": 4914,
      "scores": 4915,
      "nine": 4916,
      "rout": 4917,
      "headline": 4918,
      "favorable": 4919,
      "christmas": 4920,
      "sustainable": 4921,
      "alcohol": 4922,
      "itive": 4923,
      "rela": 4924,
      "patho": 4925,
      "magical": 4926,
      "conse": 4927,
      "moment": 4928,
      "implications": 4929,
      "finished": 4930,
      "gun": 4931,
      "ib": 4932,
      "rs": 4933,
      "ising": 4934,
      "prog": 4935,
      "decor": 4936,
      "precise": 4937,
      "extreme": 4938,
      "vest": 4939,
      "shap": 4940,
      "election": 4941,
      "sandwiches": 4942,
      "mexico": 4943,
      "renewable": 4944,
      "fab": 4945,
      "mars": 4946,
      "parking": 4947,
      "phones": 4948,
      "thanks": 4949,
      "trape": 4950,
      "elevation": 4951,
      "himself": 4952,
      "beginning": 4953,
      "determined": 4954,
      "aud": 4955,
      "traf": 4956,
      "entertain": 4957,
      "survive": 4958,
      "pyramid": 4959,
      "icy": 4960,
      "beaut": 4961,
      "embo": 4962,
      "brush": 4963,
      "rainbow": 4964,
      "birthplace": 4965,
      "cleaning": 4966,
      "dynamics": 4967,
      "challenges": 4968,
      "consecutive": 4969,
      "88": 4970,
      "seat": 4971,
      "verbal": 4972,
      "watermelon": 4973,
      "surround": 4974,
      "betty": 4975,
      "sticks": 4976,
      "catalytic": 4977,
      "beauty": 4978,
      "abilities": 4979,
      "spaces": 4980,
      "paraphrases": 4981,
      "2π": 4982,
      "eral": 4983,
      "exchange": 4984,
      "pean": 4985,
      "deviation": 4986,
      "feature": 4987,
      "transfer": 4988,
      "gaussian": 4989,
      "completely": 4990,
      "delivery": 4991,
      "carrying": 4992,
      "ws": 4993,
      "wis": 4994,
      "vectors": 4995,
      "coach": 4996,
      "verify": 4997,
      "occurs": 4998,
      "touch": 4999,
      "eye": 5000,
      "stair": 5001,
      "loch": 5002,
      "muf": 5003,
      "polar": 5004,
      "biotechnology": 5005,
      "hydrochlor": 5006,
      "july": 5007,
      "46": 5008,
      "fuel": 5009,
      "application": 5010,
      "axis": 5011,
      "victor": 5012,
      "insulin": 5013,
      "800": 5014,
      "dz": 5015,
      "wife": 5016,
      "zas": 5017,
      "fear": 5018,
      "launch": 5019,
      "metabolism": 5020,
      "difficult": 5021,
      "sens": 5022,
      "swee": 5023,
      "laur": 5024,
      "developed": 5025,
      "heads": 5026,
      "taller": 5027,
      "https": 5028,
      "hydrochloric": 5029,
      "master": 5030,
      "chef": 5031,
      "mei": 5032,
      "prism": 5033,
      "cric": 5034,
      "biomechanics": 5035,
      "rolling": 5036,
      "phase": 5037,
      "flies": 5038,
      "homework": 5039,
      "employee": 5040,
      "ethnic": 5041,
      "ellip": 5042,
      "jacks": 5043,
      "ingu": 5044,
      "chron": 5045,
      "iraq": 5046,
      "adds": 5047,
      "demo": 5048,
      "tomato": 5049,
      "swim": 5050,
      "replacement": 5051,
      "ians": 5052,
      "revenue": 5053,
      "tiles": 5054,
      "anda": 5055,
      "oods": 5056,
      "ducks": 5057,
      "reflect": 5058,
      "jumping": 5059,
      "110": 5060,
      "onal": 5061,
      "uments": 5062,
      "pepper": 5063,
      "depart": 5064,
      "hope": 5065,
      "articles": 5066,
      "champion": 5067,
      "amplitude": 5068,
      "ville": 5069,
      "maria": 5070,
      "aving": 5071,
      "mentions": 5072,
      "guitar": 5073,
      "roleplay": 5074,
      "jacob": 5075,
      "detect": 5076,
      "74": 5077,
      "ense": 5078,
      "rots": 5079,
      "quanti": 5080,
      "fract": 5081,
      "floors": 5082,
      "lab": 5083,
      "ni": 5084,
      "exp": 5085,
      "essential": 5086,
      "patients": 5087,
      "penn": 5088,
      "healthcare": 5089,
      "justification": 5090,
      "device": 5091,
      "lion": 5092,
      "plates": 5093,
      "expen": 5094,
      "april": 5095,
      "followed": 5096,
      "else": 5097,
      "newsp": 5098,
      "flor": 5099,
      "dais": 5100,
      "punter": 5101,
      "allowed": 5102,
      "quadratic": 5103,
      "mg": 5104,
      "mers": 5105,
      "sters": 5106,
      "domin": 5107,
      "strawberries": 5108,
      "utilized": 5109,
      "soup": 5110,
      "tagon": 5111,
      "viol": 5112,
      "hibit": 5113,
      "traffic": 5114,
      "aff": 5115,
      "career": 5116,
      "dna": 5117,
      "nothing": 5118,
      "electrode": 5119,
      "nas": 5120,
      "extra": 5121,
      "productive": 5122,
      "functional": 5123,
      "removed": 5124,
      "alternative": 5125,
      "lisa": 5126,
      "org": 5127,
      "iel": 5128,
      "tically": 5129,
      "crime": 5130,
      "ensuring": 5131,
      "fyne": 5132,
      "virt": 5133,
      "illed": 5134,
      "arium": 5135,
      "preci": 5136,
      "hole": 5137,
      "strugg": 5138,
      "looks": 5139,
      "nucle": 5140,
      "neckl": 5141,
      "methane": 5142,
      "ously": 5143,
      "underlying": 5144,
      "candles": 5145,
      "watches": 5146,
      "hormon": 5147,
      "susan": 5148,
      "destination": 5149,
      "trapez": 5150,
      "attem": 5151,
      "prices": 5152,
      "distr": 5153,
      "mathbf": 5154,
      "relax": 5155,
      "tension": 5156,
      "dots": 5157,
      "martha": 5158,
      "involves": 5159,
      "activation": 5160,
      "ilit": 5161,
      "serve": 5162,
      "teams": 5163,
      "continues": 5164,
      "alien": 5165,
      "ss": 5166,
      "wish": 5167,
      "dece": 5168,
      "motiv": 5169,
      "evening": 5170,
      "paid": 5171,
      "services": 5172,
      "camera": 5173,
      "laugh": 5174,
      "rics": 5175,
      "chi": 5176,
      "olf": 5177,
      "dolls": 5178,
      "nar": 5179,
      "olym": 5180,
      "ably": 5181,
      "soon": 5182,
      "latex": 5183,
      "industri": 5184,
      "candidate": 5185,
      "document": 5186,
      "loves": 5187,
      "goats": 5188,
      "surpr": 5189,
      "antibio": 5190,
      "embodied": 5191,
      "link": 5192,
      "tissue": 5193,
      "iction": 5194,
      "sib": 5195,
      "auce": 5196,
      "unities": 5197,
      "01": 5198,
      "nat": 5199,
      "abc": 5200,
      "desert": 5201,
      "paris": 5202,
      "structured": 5203,
      "pizzas": 5204,
      "satisfy": 5205,
      "jeff": 5206,
      "roof": 5207,
      "ified": 5208,
      "plies": 5209,
      "acad": 5210,
      "bedroom": 5211,
      "grove": 5212,
      "pap": 5213,
      "ands": 5214,
      "hey": 5215,
      "ateral": 5216,
      "veness": 5217,
      "notebooks": 5218,
      "economy": 5219,
      "rings": 5220,
      "wes": 5221,
      "phar": 5222,
      "chosen": 5223,
      "treatments": 5224,
      "truth": 5225,
      "suggestion": 5226,
      "fed": 5227,
      "thick": 5228,
      "sep": 5229,
      "temperatures": 5230,
      "killed": 5231,
      "coeffici": 5232,
      "decomposition": 5233,
      "burn": 5234,
      "metabolic": 5235,
      "puzzle": 5236,
      "arithmetic": 5237,
      "industrial": 5238,
      "coefficients": 5239,
      "han": 5240,
      "infl": 5241,
      "award": 5242,
      "leading": 5243,
      "bottom": 5244,
      "pictures": 5245,
      "aligned": 5246,
      "vous": 5247,
      "tres": 5248,
      "warming": 5249,
      "vegetarian": 5250,
      "taxonom": 5251,
      "ecosystem": 5252,
      "smith": 5253,
      "faster": 5254,
      "ophy": 5255,
      "everything": 5256,
      "brothers": 5257,
      "practices": 5258,
      "trad": 5259,
      "discover": 5260,
      "199": 5261,
      "optimal": 5262,
      "opening": 5263,
      "injury": 5264,
      "budget": 5265,
      "asian": 5266,
      "itself": 5267,
      "tering": 5268,
      "ops": 5269,
      "desp": 5270,
      "airplane": 5271,
      "completed": 5272,
      "medicine": 5273,
      "elimination": 5274,
      "hundred": 5275,
      "pression": 5276,
      "drank": 5277,
      "ecosystems": 5278,
      "gent": 5279,
      "gens": 5280,
      "pron": 5281,
      "homo": 5282,
      "involving": 5283,
      "narr": 5284,
      "titu": 5285,
      "eigen": 5286,
      "consisting": 5287,
      "verbalizes": 5288,
      "memory": 5289,
      "ports": 5290,
      "lingu": 5291,
      "consumes": 5292,
      "physiological": 5293,
      "tangent": 5294,
      "fing": 5295,
      "ias": 5296,
      "planning": 5297,
      "americans": 5298,
      "arrived": 5299,
      "recently": 5300,
      "hedral": 5301,
      "companies": 5302,
      "gri": 5303,
      "offic": 5304,
      "solute": 5305,
      "tried": 5306,
      "circular": 5307,
      "attend": 5308,
      "studies": 5309,
      "divisor": 5310,
      "eld": 5311,
      "gam": 5312,
      "plus": 5313,
      "persu": 5314,
      "calci": 5315,
      "cyto": 5316,
      "graphic": 5317,
      "fishing": 5318,
      "batch": 5319,
      "picks": 5320,
      "virtual": 5321,
      "ativ": 5322,
      "mell": 5323,
      "agent": 5324,
      "particle": 5325,
      "carrots": 5326,
      "january": 5327,
      "gallon": 5328,
      "nation": 5329,
      "atives": 5330,
      "answered": 5331,
      "ami": 5332,
      "captain": 5333,
      "reality": 5334,
      "palace": 5335,
      "georg": 5336,
      "kit": 5337,
      "pian": 5338,
      "seas": 5339,
      "equip": 5340,
      "looked": 5341,
      "thy": 5342,
      "moved": 5343,
      "married": 5344,
      "drinking": 5345,
      "explaining": 5346,
      "disorders": 5347,
      "lived": 5348,
      "australia": 5349,
      "wit": 5350,
      "survey": 5351,
      "subset": 5352,
      "developing": 5353,
      "growing": 5354,
      "harvest": 5355,
      "atoms": 5356,
      "dishes": 5357,
      "ctiveness": 5358,
      "repeat": 5359,
      "fa": 5360,
      "lyrics": 5361,
      "index": 5362,
      "cred": 5363,
      "effe": 5364,
      "transition": 5365,
      "supply": 5366,
      "drawing": 5367,
      "began": 5368,
      "expon": 5369,
      "wet": 5370,
      "sheets": 5371,
      "thank": 5372,
      "spin": 5373,
      "biological": 5374,
      "modul": 5375,
      "ities": 5376,
      "angry": 5377,
      "isher": 5378,
      "meals": 5379,
      "herself": 5380,
      "ender": 5381,
      "conser": 5382,
      "magic": 5383,
      "240": 5384,
      "tact": 5385,
      "frame": 5386,
      "josh": 5387,
      "background": 5388,
      "expressed": 5389,
      "campa": 5390,
      "aquarium": 5391,
      "muffin": 5392,
      "140": 5393,
      "84": 5394,
      "drew": 5395,
      "kn": 5396,
      "bec": 5397,
      "august": 5398,
      "providing": 5399,
      "priv": 5400,
      "attended": 5401,
      "changed": 5402,
      "signaling": 5403,
      "despite": 5404,
      "army": 5405,
      "cha": 5406,
      "oles": 5407,
      "ablish": 5408,
      "matches": 5409,
      "circum": 5410,
      "hormone": 5411,
      "henry": 5412,
      "measured": 5413,
      "effectiveness": 5414,
      "clow": 5415,
      "error": 5416,
      "ida": 5417,
      "establish": 5418,
      "brace": 5419,
      "partof": 5420,
      "ometric": 5421,
      "greek": 5422,
      "reactants": 5423,
      "pollution": 5424,
      "neutral": 5425,
      "tagonist": 5426,
      "bc": 5427,
      "ya": 5428,
      "theater": 5429,
      "forward": 5430,
      "spain": 5431,
      "joint": 5432,
      "janet": 5433,
      "literature": 5434,
      "79": 5435,
      "vapor": 5436,
      "ispartof": 5437,
      "official": 5438,
      "riley": 5439,
      "convin": 5440,
      "conference": 5441,
      "aint": 5442,
      "apol": 5443,
      "dihedral": 5444,
      "rational": 5445,
      "bones": 5446,
      "electrical": 5447,
      "atomic": 5448,
      "crackers": 5449,
      "bone": 5450,
      "dess": 5451,
      "fox": 5452,
      "inverse": 5453,
      "celer": 5454,
      "cuis": 5455,
      "shown": 5456,
      "brian": 5457,
      "presentation": 5458,
      "doubles": 5459,
      "creatively": 5460,
      "diagnosis": 5461,
      "passengers": 5462,
      "rare": 5463,
      "asure": 5464,
      "lete": 5465,
      "oli": 5466,
      "ifer": 5467,
      "illu": 5468,
      "triangles": 5469,
      "wing": 5470,
      "chic": 5471,
      "confl": 5472,
      "optical": 5473,
      "serves": 5474,
      "included": 5475,
      "brownies": 5476,
      "cous": 5477,
      "seasons": 5478,
      "expert": 5479,
      "cognitive": 5480,
      "rabbit": 5481,
      "shakespe": 5482,
      "51": 5483,
      "ifts": 5484,
      "therefore": 5485,
      "cookie": 5486,
      "mrs": 5487,
      "agric": 5488,
      "oxidation": 5489,
      "jon": 5490,
      "nh": 5491,
      "tile": 5492,
      "excel": 5493,
      "breath": 5494,
      "pops": 5495,
      "ole": 5496,
      "rob": 5497,
      "poor": 5498,
      "ured": 5499,
      "regions": 5500,
      "ethyl": 5501,
      "astron": 5502,
      "python": 5503,
      "campaign": 5504,
      "shakespeare": 5505,
      "atlan": 5506,
      "becomes": 5507,
      "carol": 5508,
      "carla": 5509,
      "thered": 5510,
      "laun": 5511,
      "guy": 5512,
      "umption": 5513,
      "removing": 5514,
      "siblings": 5515,
      "67": 5516,
      "analog": 5517,
      "albert": 5518,
      "moves": 5519,
      "shoo": 5520,
      "anton": 5521,
      "sensi": 5522,
      "turns": 5523,
      "communic": 5524,
      "nanop": 5525,
      "expensive": 5526,
      "mine": 5527,
      "nur": 5528,
      "shad": 5529,
      "stit": 5530,
      "jessica": 5531,
      "remember": 5532,
      "aling": 5533,
      "igan": 5534,
      "els": 5535,
      "ception": 5536,
      "elephant": 5537,
      "62": 5538,
      "cking": 5539,
      "pitch": 5540,
      "theta": 5541,
      "arom": 5542,
      "acetic": 5543,
      "stands": 5544,
      "syndro": 5545,
      "adsor": 5546,
      "africa": 5547,
      "denny": 5548,
      "martin": 5549,
      "jimmy": 5550,
      "joseph": 5551,
      "n2": 5552,
      "generation": 5553,
      "highly": 5554,
      "walls": 5555,
      "mathematics": 5556,
      "incorporate": 5557,
      "department": 5558,
      "bay": 5559,
      "concl": 5560,
      "organization": 5561,
      "originally": 5562,
      "danger": 5563,
      "hil": 5564,
      "encour": 5565,
      "absolute": 5566,
      "soldi": 5567,
      "monica": 5568,
      "memor": 5569,
      "cutting": 5570,
      "announ": 5571,
      "journal": 5572,
      "vaults": 5573,
      "trigonometry": 5574,
      "eul": 5575,
      "nac": 5576,
      "income": 5577,
      "sees": 5578,
      "rible": 5579,
      "distingu": 5580,
      "couldn": 5581,
      "annah": 5582,
      "adventure": 5583,
      "identical": 5584,
      "57": 5585,
      "c2": 5586,
      "zes": 5587,
      "thro": 5588,
      "cov": 5589,
      "und": 5590,
      "deb": 5591,
      "bers": 5592,
      "crates": 5593,
      "singular": 5594,
      "donald": 5595,
      "donuts": 5596,
      "mutations": 5597,
      "crowd": 5598,
      "cylinder": 5599,
      "syndrome": 5600,
      "itor": 5601,
      "teeth": 5602,
      "ression": 5603,
      "perspec": 5604,
      "wrong": 5605,
      "remains": 5606,
      "gather": 5607,
      "randy": 5608,
      "grammatically": 5609,
      "fractal": 5610,
      "cuisine": 5611,
      "dum": 5612,
      "rum": 5613,
      "stro": 5614,
      "feather": 5615,
      "illa": 5616,
      "carpet": 5617,
      "yourself": 5618,
      "philip": 5619,
      "scientist": 5620,
      "amazon": 5621,
      "cdot": 5622,
      "sided": 5623,
      "vative": 5624,
      "reproductive": 5625,
      "females": 5626,
      "mates": 5627,
      "bench": 5628,
      "teachers": 5629,
      "operation": 5630,
      "selection": 5631,
      "43": 5632,
      "fusion": 5633,
      "enge": 5634,
      "chess": 5635,
      "traits": 5636,
      "clock": 5637,
      "passing": 5638,
      "fluid": 5639,
      "annual": 5640,
      "records": 5641,
      "ners": 5642,
      "wine": 5643,
      "asc": 5644,
      "virus": 5645,
      "lift": 5646,
      "studied": 5647,
      "varying": 5648,
      "slice": 5649,
      "aks": 5650,
      "aking": 5651,
      "waves": 5652,
      "bean": 5653,
      "buttons": 5654,
      "fundam": 5655,
      "potter": 5656,
      "universe": 5657,
      "160": 5658,
      "akes": 5659,
      "tage": 5660,
      "shot": 5661,
      "2010": 5662,
      "isomorphism": 5663,
      "electricity": 5664,
      "pronoun": 5665,
      "89": 5666,
      "fields": 5667,
      "hunter": 5668,
      "bulbs": 5669,
      "centered": 5670,
      "mysterious": 5671,
      "69": 5672,
      "ilies": 5673,
      "offers": 5674,
      "teaching": 5675,
      "nood": 5676,
      "anne": 5677,
      "alone": 5678,
      "leaving": 5679,
      "megan": 5680,
      "usive": 5681,
      "domain": 5682,
      "exists": 5683,
      "pee": 5684,
      "experiences": 5685,
      "★★★": 5686,
      "★★★★★": 5687,
      "ziz": 5688,
      "attr": 5689,
      "detail": 5690,
      "transmit": 5691,
      "closet": 5692,
      "monthly": 5693,
      "instrument": 5694,
      "curves": 5695,
      "anything": 5696,
      "tember": 5697,
      "similarity": 5698,
      "performing": 5699,
      "wildwood": 5700,
      "jackson": 5701,
      "bis": 5702,
      "hcl": 5703,
      "idi": 5704,
      "ache": 5705,
      "oney": 5706,
      "fungi": 5707,
      "reviews": 5708,
      "bright": 5709,
      "bakes": 5710,
      "pit": 5711,
      "arn": 5712,
      "ilateral": 5713,
      "ansion": 5714,
      "actually": 5715,
      "fridge": 5716,
      "regard": 5717,
      "keeping": 5718,
      "zizzi": 5719,
      "jum": 5720,
      "insp": 5721,
      "accuracy": 5722,
      "michigan": 5723,
      "drawer": 5724,
      "september": 5725,
      "bmatrix": 5726,
      "fah": 5727,
      "relig": 5728,
      "ch4": 5729,
      "cocum": 5730,
      "protagonist": 5731,
      "heit": 5732,
      "expand": 5733,
      "degrad": 5734,
      "neur": 5735,
      "equival": 5736,
      "throws": 5737,
      "nervous": 5738,
      "tests": 5739,
      "phenom": 5740,
      "miss": 5741,
      "infection": 5742,
      "shared": 5743,
      "fantasy": 5744,
      "pump": 5745,
      "pregn": 5746,
      "contributed": 5747,
      "funny": 5748,
      "commut": 5749,
      "grows": 5750,
      "renheit": 5751,
      "jenn": 5752,
      "topological": 5753,
      "elliptic": 5754,
      "western": 5755,
      "fahrenheit": 5756,
      "41": 5757,
      "hid": 5758,
      "jill": 5759,
      "send": 5760,
      "woods": 5761,
      "chap": 5762,
      "bey": 5763,
      "consumption": 5764,
      "discount": 5765,
      "charles": 5766,
      "median": 5767,
      "gaz": 5768,
      "satisfied": 5769,
      "homology": 5770,
      "bicycle": 5771,
      "euler": 5772,
      "cil": 5773,
      "gly": 5774,
      "mice": 5775,
      "sally": 5776,
      "tun": 5777,
      "propose": 5778,
      "opport": 5779,
      "nove": 5780,
      "powerful": 5781,
      "vacu": 5782,
      "pigs": 5783,
      "comedy": 5784,
      "fundamental": 5785,
      "thom": 5786,
      "republic": 5787,
      "orch": 5788,
      "idents": 5789,
      "acci": 5790,
      "sunlight": 5791,
      "photos": 5792,
      "challenge": 5793,
      "decrease": 5794,
      "stairs": 5795,
      "none": 5796,
      "endo": 5797,
      "stages": 5798,
      "quot": 5799,
      "quest": 5800,
      "tration": 5801,
      "combus": 5802,
      "equilateral": 5803,
      "organism": 5804,
      "experienced": 5805,
      "73": 5806,
      "ckey": 5807,
      "usage": 5808,
      "dee": 5809,
      "outdoor": 5810,
      "fever": 5811,
      "tag": 5812,
      "typic": 5813,
      "brid": 5814,
      "provides": 5815,
      "salad": 5816,
      "burg": 5817,
      "molar": 5818,
      "integral": 5819,
      "manufacturing": 5820,
      "murder": 5821,
      "ativity": 5822,
      "lack": 5823,
      "nth": 5824,
      "tore": 5825,
      "stre": 5826,
      "idential": 5827,
      "fibon": 5828,
      "circu": 5829,
      "collects": 5830,
      "thre": 5831,
      "sector": 5832,
      "proposed": 5833,
      "unk": 5834,
      "iet": 5835,
      "films": 5836,
      "soft": 5837,
      "consumed": 5838,
      "newspaper": 5839,
      "nap": 5840,
      "native": 5841,
      "brings": 5842,
      "flav": 5843,
      "hypoten": 5844,
      "schools": 5845,
      "combustion": 5846,
      "sauce": 5847,
      "ola": 5848,
      "liked": 5849,
      "braz": 5850,
      "myth": 5851,
      "apping": 5852,
      "bacon": 5853,
      "episode": 5854,
      "muffins": 5855,
      "fibonacci": 5856,
      "poo": 5857,
      "sue": 5858,
      "typically": 5859,
      "fate": 5860,
      "offici": 5861,
      "asive": 5862,
      "acceler": 5863,
      "resol": 5864,
      "feat": 5865,
      "shift": 5866,
      "possib": 5867,
      "classification": 5868,
      "prize": 5869,
      "breed": 5870,
      "observed": 5871,
      "designed": 5872,
      "belie": 5873,
      "indiana": 5874,
      "flying": 5875,
      "suffer": 5876,
      "calcium": 5877,
      "piano": 5878,
      "jennifer": 5879,
      "hypotenuse": 5880,
      "scar": 5881,
      "erg": 5882,
      "onic": 5883,
      "coat": 5884,
      "keys": 5885,
      "colored": 5886,
      "salient": 5887,
      "jones": 5888,
      "rons": 5889,
      "rey": 5890,
      "frog": 5891,
      "engage": 5892,
      "classic": 5893,
      "rub": 5894,
      "technique": 5895,
      "aromi": 5896,
      "7x": 5897,
      "stan": 5898,
      "sheet": 5899,
      "carl": 5900,
      "skate": 5901,
      "suspect": 5902,
      "sleeping": 5903,
      "giant": 5904,
      "philos": 5905,
      "crisis": 5906,
      "fabric": 5907,
      "nav": 5908,
      "oz": 5909,
      "encounter": 5910,
      "actress": 5911,
      "fried": 5912,
      "lawn": 5913,
      "category": 5914,
      "psych": 5915,
      "district": 5916,
      "71": 5917,
      "isra": 5918,
      "icks": 5919,
      "manip": 5920,
      "germany": 5921,
      "tools": 5922,
      "distinguish": 5923,
      "tin": 5924,
      "trou": 5925,
      "processing": 5926,
      "moles": 5927,
      "roller": 5928,
      "reported": 5929,
      "binding": 5930,
      "ethan": 5931,
      "egy": 5932,
      "rode": 5933,
      "conven": 5934,
      "contact": 5935,
      "upcoming": 5936,
      "display": 5937,
      "turtles": 5938,
      "broke": 5939,
      "queen": 5940,
      "satisfies": 5941,
      "advanced": 5942,
      "modify": 5943,
      "jacket": 5944,
      "elder": 5945,
      "commutative": 5946,
      "cere": 5947,
      "lions": 5948,
      "property": 5949,
      "keeps": 5950,
      "represented": 5951,
      "rabbits": 5952,
      "scientists": 5953,
      "independent": 5954,
      "cash": 5955,
      "δh": 5956,
      "exe": 5957,
      "neural": 5958,
      "kevin": 5959,
      "steven": 5960,
      "explo": 5961,
      "greg": 5962,
      "bush": 5963,
      "weighing": 5964,
      "falling": 5965,
      "delic": 5966,
      "diagonal": 5967,
      "shark": 5968,
      "metalloproteins": 5969,
      "brazil": 5970,
      "360": 5971,
      "honey": 5972,
      "kyle": 5973,
      "mb": 5974,
      "rina": 5975,
      "unity": 5976,
      "gray": 5977,
      "sius": 5978,
      "diges": 5979,
      "talks": 5980,
      "lier": 5981,
      "busy": 5982,
      "concentr": 5983,
      "duration": 5984,
      "53": 5985,
      "refri": 5986,
      "bears": 5987,
      "biology": 5988,
      "painted": 5989,
      "cycling": 5990,
      "minimize": 5991,
      "novels": 5992,
      "spots": 5993,
      "integration": 5994,
      "refriger": 5995,
      "ckets": 5996,
      "atm": 5997,
      "assi": 5998,
      "urban": 5999,
      "sher": 6000,
      "liver": 6001,
      "brend": 6002,
      "ologies": 6003,
      "viruses": 6004,
      "squir": 6005,
      "gathered": 6006,
      "layer": 6007,
      "emotional": 6008,
      "celsius": 6009,
      "route": 6010,
      "estimate": 6011,
      "bou": 6012,
      "kore": 6013,
      "aries": 6014,
      "poe": 6015,
      "trade": 6016,
      "bodies": 6017,
      "bucket": 6018,
      "firm": 6019,
      "mito": 6020,
      "circles": 6021,
      "tooth": 6022,
      "julia": 6023,
      "placing": 6024,
      "assistant": 6025,
      "parallel": 6026,
      "rules": 6027,
      "perspective": 6028,
      "kine": 6029,
      "rail": 6030,
      "anders": 6031,
      "itis": 6032,
      "ado": 6033,
      "uncle": 6034,
      "peaches": 6035,
      "client": 6036,
      "catches": 6037,
      "jake": 6038,
      "crystal": 6039,
      "husband": 6040,
      "ethylene": 6041,
      "ara": 6042,
      "wasn": 6043,
      "estyle": 6044,
      "ups": 6045,
      "spider": 6046,
      "corner": 6047,
      "handle": 6048,
      "influenced": 6049,
      "define": 6050,
      "louis": 6051,
      "eve": 6052,
      "tie": 6053,
      "chief": 6054,
      "decl": 6055,
      "finds": 6056,
      "kilome": 6057,
      "homes": 6058,
      "laundry": 6059,
      "nanoparticles": 6060,
      "cies": 6061,
      "almost": 6062,
      "sometimes": 6063,
      "counting": 6064,
      "magnitude": 6065,
      "promote": 6066,
      "branch": 6067,
      "equivalent": 6068,
      "november": 6069,
      "ske": 6070,
      "yog": 6071,
      "rib": 6072,
      "variables": 6073,
      "purity": 6074,
      "connection": 6075,
      "storage": 6076,
      "dresses": 6077,
      "bacterial": 6078,
      "spectros": 6079,
      "kayla": 6080,
      "fes": 6081,
      "mouse": 6082,
      "pin": 6083,
      "zard": 6084,
      "coal": 6085,
      "mann": 6086,
      "charlie": 6087,
      "populations": 6088,
      "torus": 6089,
      "mountains": 6090,
      "approaches": 6091,
      "infin": 6092,
      "indones": 6093,
      "blank": 6094,
      "knows": 6095,
      "drama": 6096,
      "counted": 6097,
      "contained": 6098,
      "chocolates": 6099,
      "hormones": 6100,
      "analogy": 6101,
      "hidden": 6102,
      "47": 6103,
      "5th": 6104,
      "rd": 6105,
      "benj": 6106,
      "scott": 6107,
      "southern": 6108,
      "returns": 6109,
      "capitalize": 6110,
      "calls": 6111,
      "particles": 6112,
      "rouge": 6113,
      "cabine": 6114,
      "squirrel": 6115,
      "hannah": 6116,
      "thous": 6117,
      "esium": 6118,
      "proced": 6119,
      "ticket": 6120,
      "shell": 6121,
      "preser": 6122,
      "backyard": 6123,
      "mistakes": 6124,
      "helps": 6125,
      "mammal": 6126,
      "magnesium": 6127,
      "automatic": 6128,
      "russian": 6129,
      "rep": 6130,
      "staff": 6131,
      "typical": 6132,
      "discovery": 6133,
      "attention": 6134,
      "nacl": 6135,
      "4th": 6136,
      "81": 6137,
      "ost": 6138,
      "osa": 6139,
      "vit": 6140,
      "zens": 6141,
      "thyl": 6142,
      "ament": 6143,
      "posure": 6144,
      "emission": 6145,
      "elle": 6146,
      "charges": 6147,
      "apped": 6148,
      "midsummer": 6149,
      "reduction": 6150,
      "existing": 6151,
      "vehicle": 6152,
      "becca": 6153,
      "5z": 6154,
      "apo": 6155,
      "rates": 6156,
      "leon": 6157,
      "assess": 6158,
      "2020": 6159,
      "monom": 6160,
      "mini": 6161,
      "drum": 6162,
      "hockey": 6163,
      "potassi": 6164,
      "luck": 6165,
      "sara": 6166,
      "snowfl": 6167,
      "logically": 6168,
      "innovative": 6169,
      "feathers": 6170,
      "potassium": 6171,
      "gifts": 6172,
      "xide": 6173,
      "era": 6174,
      "oft": 6175,
      "exposure": 6176,
      "manner": 6177,
      "magaz": 6178,
      "dust": 6179,
      "crash": 6180,
      "criter": 6181,
      "flavor": 6182,
      "gradu": 6183,
      "watched": 6184,
      "pencil": 6185,
      "snake": 6186,
      "georgia": 6187,
      "tany": 6188,
      "upper": 6189,
      "substit": 6190,
      "weights": 6191,
      "falls": 6192,
      "summarizes": 6193,
      "emphas": 6194,
      "sweets": 6195,
      "gins": 6196,
      "lord": 6197,
      "andy": 6198,
      "losing": 6199,
      "curi": 6200,
      "picking": 6201,
      "trucks": 6202,
      "palind": 6203,
      "lizzy": 6204,
      "cherry": 6205,
      "macar": 6206,
      "metalloenzymes": 6207,
      "chicago": 6208,
      "covid": 6209,
      "ligh": 6210,
      "nest": 6211,
      "pill": 6212,
      "adjac": 6213,
      "loyal": 6214,
      "izon": 6215,
      "policy": 6216,
      "grapes": 6217,
      "2004": 6218,
      "studi": 6219,
      "supermarket": 6220,
      "jersey": 6221,
      "enjoyed": 6222,
      "jenny": 6223,
      "slope": 6224,
      "shoe": 6225,
      "rearrange": 6226,
      "ades": 6227,
      "notes": 6228,
      "turk": 6229,
      "drops": 6230,
      "impacts": 6231,
      "feelings": 6232,
      "reducing": 6233,
      "niture": 6234,
      "balloon": 6235,
      "principal": 6236,
      "partial": 6237,
      "vehicles": 6238,
      "pennies": 6239,
      "dd": 6240,
      "legen": 6241,
      "chop": 6242,
      "quite": 6243,
      "hells": 6244,
      "medium": 6245,
      "showing": 6246,
      "visual": 6247,
      "justin": 6248,
      "furniture": 6249,
      "chronic": 6250,
      "fu": 6251,
      "ji": 6252,
      "lily": 6253,
      "rebecca": 6254,
      "aspect": 6255,
      "explore": 6256,
      "advance": 6257,
      "6y": 6258,
      "tip": 6259,
      "tos": 6260,
      "excell": 6261,
      "jean": 6262,
      "label": 6263,
      "visiting": 6264,
      "passes": 6265,
      "cooked": 6266,
      "saman": 6267,
      "evenly": 6268,
      "empire": 6269,
      "ussia": 6270,
      "install": 6271,
      "preparation": 6272,
      "rac": 6273,
      "ains": 6274,
      "frogs": 6275,
      "engaging": 6276,
      "angela": 6277,
      "pile": 6278,
      "practic": 6279,
      "mixture": 6280,
      "investment": 6281,
      "equipment": 6282,
      "dden": 6283,
      "oven": 6284,
      "ises": 6285,
      "coefficient": 6286,
      "ulate": 6287,
      "immedi": 6288,
      "aps": 6289,
      "creature": 6290,
      "mitig": 6291,
      "vibr": 6292,
      "shower": 6293,
      "biof": 6294,
      "logistic": 6295,
      "raise": 6296,
      "rounded": 6297,
      "historian": 6298,
      "severe": 6299,
      "lungs": 6300,
      "gone": 6301,
      "celes": 6302,
      "overview": 6303,
      "potato": 6304,
      "northern": 6305,
      "trust": 6306,
      "298": 6307,
      "depth": 6308,
      "fixed": 6309,
      "literary": 6310,
      "prepared": 6311,
      "radioactive": 6312,
      "announced": 6313,
      "asks": 6314,
      "iders": 6315,
      "pling": 6316,
      "cribed": 6317,
      "writes": 6318,
      "ships": 6319,
      "computers": 6320,
      "tube": 6321,
      "breaking": 6322,
      "experimental": 6323,
      "wins": 6324,
      "tire": 6325,
      "becoming": 6326,
      "receives": 6327,
      "ternal": 6328,
      "operating": 6329,
      "evolved": 6330,
      "renowned": 6331,
      "requirement": 6332,
      "titution": 6333,
      "spirit": 6334,
      "puppies": 6335,
      "synonym": 6336,
      "routine": 6337,
      "59": 6338,
      "cros": 6339,
      "ffy": 6340,
      "stones": 6341,
      "advis": 6342,
      "boiling": 6343,
      "tenth": 6344,
      "currency": 6345,
      "salary": 6346,
      "fills": 6347,
      "pathway": 6348,
      "grandmother": 6349,
      "accomplishing": 6350,
      "expansion": 6351,
      "seashells": 6352,
      "das": 6353,
      "kick": 6354,
      "abs": 6355,
      "skip": 6356,
      "although": 6357,
      "reactant": 6358,
      "quote": 6359,
      "therapy": 6360,
      "victoria": 6361,
      "narrative": 6362,
      "nh3": 6363,
      "astronaut": 6364,
      "circuit": 6365,
      "61": 6366,
      "ibility": 6367,
      "jam": 6368,
      "kers": 6369,
      "anx": 6370,
      "vegan": 6371,
      "ionic": 6372,
      "conve": 6373,
      "sudden": 6374,
      "earned": 6375,
      "fertiliz": 6376,
      "calculation": 6377,
      "statements": 6378,
      "horror": 6379,
      "packages": 6380,
      "bullet": 6381,
      "director": 6382,
      "wheels": 6383,
      "sulfur": 6384,
      "cylindrical": 6385,
      "advertise": 6386,
      "inquiring": 6387,
      "bbles": 6388,
      "reply": 6389,
      "oldest": 6390,
      "proof": 6391,
      "angeles": 6392,
      "counts": 6393,
      "founded": 6394,
      "helped": 6395,
      "experiencing": 6396,
      "drawn": 6397,
      "visitors": 6398,
      "respiratory": 6399,
      "democr": 6400,
      "persuasive": 6401,
      "dangerous": 6402,
      "87": 6403,
      "lies": 6404,
      "tiger": 6405,
      "ascular": 6406,
      "contract": 6407,
      "excl": 6408,
      "reser": 6409,
      "datase": 6410,
      "compact": 6411,
      "adium": 6412,
      "profile": 6413,
      "practical": 6414,
      "concert": 6415,
      "francis": 6416,
      "differentiate": 6417,
      "december": 6418,
      "phenomen": 6419,
      "gur": 6420,
      "lone": 6421,
      "promis": 6422,
      "nei": 6423,
      "febr": 6424,
      "cra": 6425,
      "lifestyle": 6426,
      "dolph": 6427,
      "machines": 6428,
      "brainstorm": 6429,
      "easily": 6430,
      "dreams": 6431,
      "concentrations": 6432,
      "reve": 6433,
      "bling": 6434,
      "125": 6435,
      "variation": 6436,
      "exams": 6437,
      "johnson": 6438,
      "driver": 6439,
      "driven": 6440,
      "burgers": 6441,
      "returned": 6442,
      "attemp": 6443,
      "border": 6444,
      "flip": 6445,
      "tient": 6446,
      "grant": 6447,
      "tau": 6448,
      "relate": 6449,
      "happiness": 6450,
      "romantic": 6451,
      "servings": 6452,
      "predicted": 6453,
      "absorption": 6454,
      "february": 6455,
      "91": 6456,
      "rental": 6457,
      "tetra": 6458,
      "crew": 6459,
      "families": 6460,
      "treating": 6461,
      "membr": 6462,
      "suggested": 6463,
      "chlorine": 6464,
      "ranch": 6465,
      "kmph": 6466,
      "platform": 6467,
      "exponent": 6468,
      "conflict": 6469,
      "neither": 6470,
      "ey": 6471,
      "rus": 6472,
      "yms": 6473,
      "tober": 6474,
      "folding": 6475,
      "ideal": 6476,
      "gender": 6477,
      "useful": 6478,
      "benz": 6479,
      "attach": 6480,
      "minimizing": 6481,
      "daniel": 6482,
      "troy": 6483,
      "aspir": 6484,
      "chest": 6485,
      "beef": 6486,
      "coast": 6487,
      "urer": 6488,
      "unt": 6489,
      "excess": 6490,
      "desired": 6491,
      "spelling": 6492,
      "disappoint": 6493,
      "interaction": 6494,
      "topics": 6495,
      "acids": 6496,
      "universal": 6497,
      "dressed": 6498,
      "latin": 6499,
      "adsorption": 6500,
      "oy": 6501,
      "stable": 6502,
      "pros": 6503,
      "sized": 6504,
      "citi": 6505,
      "october": 6506,
      "complexes": 6507,
      "recommended": 6508,
      "published": 6509,
      "koch": 6510,
      "incorporating": 6511,
      "pandemic": 6512,
      "pathogens": 6513,
      "excellent": 6514,
      "orient": 6515,
      "adminis": 6516,
      "productivity": 6517,
      "notation": 6518,
      "trial": 6519,
      "basis": 6520,
      "2006": 6521,
      "sunny": 6522,
      "omega": 6523,
      "accurately": 6524,
      "hydroxide": 6525,
      "bakery": 6526,
      "crops": 6527,
      "mystery": 6528,
      "gravity": 6529,
      "festi": 6530,
      "monomer": 6531,
      "dge": 6532,
      "tered": 6533,
      "speaking": 6534,
      "bugs": 6535,
      "command": 6536,
      "dimes": 6537,
      "garage": 6538,
      "nationality": 6539,
      "greece": 6540,
      "remote": 6541,
      "selectivity": 6542,
      "failure": 6543,
      "dirt": 6544,
      "battery": 6545,
      "stroke": 6546,
      "noodle": 6547,
      "thomas": 6548,
      "dataset": 6549,
      "9x": 6550,
      "dt": 6551,
      "faction": 6552,
      "knew": 6553,
      "rit": 6554,
      "interact": 6555,
      "technological": 6556,
      "trains": 6557,
      "vinyl": 6558,
      "5000": 6559,
      "bid": 6560,
      "gup": 6561,
      "unov": 6562,
      "parameter": 6563,
      "premi": 6564,
      "gos": 6565,
      "portland": 6566,
      "gerald": 6567,
      "samuel": 6568,
      "sixth": 6569,
      "bigger": 6570,
      "micros": 6571,
      "loud": 6572,
      "sulfate": 6573,
      "phenomenon": 6574,
      "membrane": 6575,
      "450": 6576,
      "dul": 6577,
      "ius": 6578,
      "invention": 6579,
      "apunov": 6580,
      "lyapunov": 6581,
      "overcome": 6582,
      "everyday": 6583,
      "containers": 6584,
      "climb": 6585,
      "metap": 6586,
      "pretty": 6587,
      "professor": 6588,
      "facilit": 6589,
      "castle": 6590,
      "confidence": 6591,
      "separated": 6592,
      "boundary": 6593,
      "clowns": 6594,
      "conclusion": 6595,
      "festival": 6596,
      "kang": 6597,
      "kary": 6598,
      "tissues": 6599,
      "stadium": 6600,
      "sections": 6601,
      "cocon": 6602,
      "medication": 6603,
      "structural": 6604,
      "metals": 6605,
      "nancy": 6606,
      "separate": 6607,
      "circumference": 6608,
      "hoo": 6609,
      "iphone": 6610,
      "kno": 6611,
      "knight": 6612,
      "mount": 6613,
      "incorrect": 6614,
      "teas": 6615,
      "playground": 6616,
      "subs": 6617,
      "probably": 6618,
      "arctic": 6619,
      "florida": 6620,
      "samantha": 6621,
      "hens": 6622,
      "nails": 6623,
      "comfor": 6624,
      "agre": 6625,
      "afore": 6626,
      "rising": 6627,
      "combination": 6628,
      "stores": 6629,
      "butterfly": 6630,
      "defense": 6631,
      "synonyms": 6632,
      "necklaces": 6633,
      "convince": 6634,
      "ribbon": 6635,
      "aforementioned": 6636,
      "roles": 6637,
      "methyl": 6638,
      "usa": 6639,
      "acqu": 6640,
      "compos": 6641,
      "shots": 6642,
      "subsequ": 6643,
      "bial": 6644,
      "naoh": 6645,
      "migration": 6646,
      "laura": 6647,
      "ethnicgroup": 6648,
      "vacuum": 6649,
      "delicious": 6650,
      "spectroscopy": 6651,
      "benjamin": 6652,
      "adjacent": 6653,
      "daw": 6654,
      "russia": 6655,
      "angel": 6656,
      "possess": 6657,
      "1200": 6658,
      "trail": 6659,
      "relative": 6660,
      "partner": 6661,
      "malay": 6662,
      "risks": 6663,
      "graders": 6664,
      "nicke": 6665,
      "principle": 6666,
      "tasks": 6667,
      "schedu": 6668,
      "clouds": 6669,
      "computing": 6670,
      "titude": 6671,
      "criteria": 6672,
      "rices": 6673,
      "stories": 6674,
      "robo": 6675,
      "valent": 6676,
      "effic": 6677,
      "baskets": 6678,
      "polygon": 6679,
      "component": 6680,
      "breaks": 6681,
      "hurric": 6682,
      "dessert": 6683,
      "fine": 6684,
      "yip": 6685,
      "ardo": 6686,
      "jeans": 6687,
      "billion": 6688,
      "huge": 6689,
      "habitat": 6690,
      "daisies": 6691,
      "jumps": 6692,
      "wound": 6693,
      "orous": 6694,
      "causing": 6695,
      "turning": 6696,
      "signs": 6697,
      "technologies": 6698,
      "sidewalk": 6699,
      "array": 6700,
      "bobby": 6701,
      "mixed": 6702,
      "smartphone": 6703,
      "amazing": 6704,
      "investigate": 6705,
      "biscu": 6706,
      "guppies": 6707,
      "jas": 6708,
      "kins": 6709,
      "smell": 6710,
      "tum": 6711,
      "aroo": 6712,
      "robot": 6713,
      "heim": 6714,
      "depression": 6715,
      "marcus": 6716,
      "contest": 6717,
      "interpret": 6718,
      "matrices": 6719,
      "workplace": 6720,
      "menu": 6721,
      "bills": 6722,
      "businesses": 6723,
      "bull": 6724,
      "preparing": 6725,
      "shaped": 6726,
      "pharma": 6727,
      "orchard": 6728,
      "dut": 6729,
      "ez": 6730,
      "fos": 6731,
      "kir": 6732,
      "inspir": 6733,
      "repair": 6734,
      "loaves": 6735,
      "creation": 6736,
      "poles": 6737,
      "2005": 6738,
      "burns": 6739,
      "satisfaction": 6740,
      "cloud": 6741,
      "hexagon": 6742,
      "efficacy": 6743,
      "fencing": 6744,
      "lum": 6745,
      "rev": 6746,
      "hash": 6747,
      "prison": 6748,
      "draft": 6749,
      "kangaroo": 6750,
      "edia": 6751,
      "adjective": 6752,
      "terrible": 6753,
      "except": 6754,
      "lyn": 6755,
      "outdoors": 6756,
      "herb": 6757,
      "earn": 6758,
      "broad": 6759,
      "sharks": 6760,
      "babies": 6761,
      "cater": 6762,
      "alie": 6763,
      "stack": 6764,
      "rights": 6765,
      "ultim": 6766,
      "clay": 6767,
      "clide": 6768,
      "solved": 6769,
      "grew": 6770,
      "council": 6771,
      "matthe": 6772,
      "worker": 6773,
      "gging": 6774,
      "nament": 6775,
      "82": 6776,
      "reactivity": 6777,
      "replacing": 6778,
      "leaf": 6779,
      "iving": 6780,
      "parent": 6781,
      "interior": 6782,
      "serious": 6783,
      "senior": 6784,
      "decay": 6785,
      "2009": 6786,
      "impacted": 6787,
      "climbed": 6788,
      "geneous": 6789,
      "paintings": 6790,
      "politic": 6791,
      "private": 6792,
      "dale": 6793,
      "pines": 6794,
      "insi": 6795,
      "alk": 6796,
      "prop": 6797,
      "deer": 6798,
      "bron": 6799,
      "polish": 6800,
      "bonding": 6801,
      "ski": 6802,
      "morse": 6803,
      "representative": 6804,
      "associative": 6805,
      "plaus": 6806,
      "possibilities": 6807,
      "yippee": 6808,
      "97": 6809,
      "cds": 6810,
      "ek": 6811,
      "soph": 6812,
      "neil": 6813,
      "tells": 6814,
      "grace": 6815,
      "newly": 6816,
      "newton": 6817,
      "hello": 6818,
      "operates": 6819,
      "spending": 6820,
      "controlled": 6821,
      "status": 6822,
      "fatig": 6823,
      "coordinate": 6824,
      "trapezoid": 6825,
      "taxonomic": 6826,
      "officials": 6827,
      "nickels": 6828,
      "8x": 6829,
      "sph": 6830,
      "inal": 6831,
      "ales": 6832,
      "andre": 6833,
      "appreci": 6834,
      "trash": 6835,
      "carrie": 6836,
      "giraffe": 6837,
      "polymers": 6838,
      "britain": 6839,
      "statistic": 6840,
      "groceries": 6841,
      "respiration": 6842,
      "trading": 6843,
      "trouble": 6844,
      "mate": 6845,
      "pak": 6846,
      "eras": 6847,
      "attract": 6848,
      "pocket": 6849,
      "classical": 6850,
      "ologist": 6851,
      "traveler": 6852,
      "leaders": 6853,
      "friendship": 6854,
      "representation": 6855,
      "threat": 6856,
      "inhibit": 6857,
      "toi": 6858,
      "acking": 6859,
      "crete": 6860,
      "grey": 6861,
      "lesser": 6862,
      "potenti": 6863,
      "norm": 6864,
      "situ": 6865,
      "climbing": 6866,
      "lucy": 6867,
      "stripes": 6868,
      "damage": 6869,
      "java": 6870,
      "commercial": 6871,
      "agreement": 6872,
      "refrigerator": 6873,
      "gary": 6874,
      "nik": 6875,
      "comic": 6876,
      "ears": 6877,
      "capture": 6878,
      "observ": 6879,
      "presented": 6880,
      "towns": 6881,
      "opera": 6882,
      "loses": 6883,
      "lemonade": 6884,
      "atlantic": 6885,
      "cabinet": 6886,
      "palindrome": 6887,
      "fatigue": 6888,
      "gab": 6889,
      "hits": 6890,
      "ime": 6891,
      "replaced": 6892,
      "forgot": 6893,
      "adhes": 6894,
      "external": 6895,
      "peak": 6896,
      "pears": 6897,
      "inequality": 6898,
      "gency": 6899,
      "syl": 6900,
      "nearby": 6901,
      "tonight": 6902,
      "rather": 6903,
      "planets": 6904,
      "garlic": 6905,
      "figures": 6906,
      "continuous": 6907,
      "snakes": 6908,
      "turkish": 6909,
      "plausible": 6910,
      "morph": 6911,
      "todd": 6912,
      "ch3": 6913,
      "entry": 6914,
      "noinput": 6915,
      "steel": 6916,
      "muscles": 6917,
      "phrases": 6918,
      "operations": 6919,
      "inspired": 6920,
      "toilet": 6921,
      "3d": 6922,
      "83": 6923,
      "aa": 6924,
      "gate": 6925,
      "gap": 6926,
      "pou": 6927,
      "onions": 6928,
      "enable": 6929,
      "issa": 6930,
      "entail": 6931,
      "usual": 6932,
      "depic": 6933,
      "carried": 6934,
      "disk": 6935,
      "crine": 6936,
      "circ": 6937,
      "maximize": 6938,
      "hunting": 6939,
      "appears": 6940,
      "tournament": 6941,
      "alternating": 6942,
      "93": 6943,
      "stom": 6944,
      "yarn": 6945,
      "ered": 6946,
      "isn": 6947,
      "oud": 6948,
      "iff": 6949,
      "ammon": 6950,
      "fold": 6951,
      "ressing": 6952,
      "sham": 6953,
      "sentiments": 6954,
      "mush": 6955,
      "patric": 6956,
      "radiation": 6957,
      "jeremy": 6958,
      "refers": 6959,
      "demonstr": 6960,
      "foc": 6961,
      "pto": 6962,
      "tul": 6963,
      "inorganic": 6964,
      "poons": 6965,
      "comics": 6966,
      "frost": 6967,
      "lize": 6968,
      "elena": 6969,
      "disadvantages": 6970,
      "dancing": 6971,
      "galax": 6972,
      "sweat": 6973,
      "indicate": 6974,
      "mitigate": 6975,
      "3rd": 6976,
      "gases": 6977,
      "erin": 6978,
      "titles": 6979,
      "legal": 6980,
      "nels": 6981,
      "themes": 6982,
      "www": 6983,
      "highlighting": 6984,
      "peanut": 6985,
      "tetrahed": 6986,
      "pakistan": 6987,
      "focusing": 6988,
      "220": 6989,
      "uck": 6990,
      "asis": 6991,
      "chip": 6992,
      "coaster": 6993,
      "shorts": 6994,
      "stocks": 6995,
      "athlete": 6996,
      "telling": 6997,
      "earthqu": 6998,
      "quantity": 6999,
      "rubber": 7000,
      "sounds": 7001,
      "thri": 7002,
      "toxic": 7003,
      "beer": 7004,
      "achie": 7005,
      "bored": 7006,
      "positions": 7007,
      "textual": 7008,
      "barrel": 7009,
      "fitness": 7010,
      "mandel": 7011,
      "shelter": 7012,
      "ovascular": 7013,
      "nutrients": 7014,
      "cardiovascular": 7015,
      "lolli": 7016,
      "indonesia": 7017,
      "cine": 7018,
      "ee": 7019,
      "fc": 7020,
      "failed": 7021,
      "lex": 7022,
      "ications": 7023,
      "propos": 7024,
      "destroy": 7025,
      "jection": 7026,
      "communities": 7027,
      "2008": 7028,
      "alities": 7029,
      "diagnostic": 7030,
      "microbial": 7031,
      "dropped": 7032,
      "procedure": 7033,
      "subsequent": 7034,
      "2i": 7035,
      "ula": 7036,
      "valley": 7037,
      "singing": 7038,
      "distributed": 7039,
      "bikes": 7040,
      "awes": 7041,
      "objective": 7042,
      "printing": 7043,
      "benefit": 7044,
      "dinosa": 7045,
      "rolled": 7046,
      "twit": 7047,
      "camping": 7048,
      "flattering": 7049,
      "vaccine": 7050,
      "elderly": 7051,
      "350": 7052,
      "jaz": 7053,
      "arily": 7054,
      "bees": 7055,
      "weap": 7056,
      "uels": 7057,
      "shut": 7058,
      "fraud": 7059,
      "biom": 7060,
      "visited": 7061,
      "covering": 7062,
      "grades": 7063,
      "subjects": 7064,
      "recorded": 7065,
      "christian": 7066,
      "implemented": 7067,
      "column": 7068,
      "progression": 7069,
      "bracelets": 7070,
      "yer": 7071,
      "asia": 7072,
      "arrow": 7073,
      "android": 7074,
      "congr": 7075,
      "tape": 7076,
      "carnations": 7077,
      "blueberries": 7078,
      "sunset": 7079,
      "parasites": 7080,
      "hyperbol": 7081,
      "pull": 7082,
      "entertainment": 7083,
      "surprise": 7084,
      "patricia": 7085,
      "spar": 7086,
      "utic": 7087,
      "intric": 7088,
      "ancy": 7089,
      "envelop": 7090,
      "encies": 7091,
      "leq": 7092,
      "quit": 7093,
      "dox": 7094,
      "extr": 7095,
      "kee": 7096,
      "marble": 7097,
      "bricks": 7098,
      "cale": 7099,
      "identifying": 7100,
      "backpack": 7101,
      "passion": 7102,
      "dave": 7103,
      "powers": 7104,
      "euclide": 7105,
      "conversion": 7106,
      "fellow": 7107,
      "riddle": 7108,
      "judge": 7109,
      "cereal": 7110,
      "studio": 7111,
      "biscuits": 7112,
      "euclidean": 7113,
      "2t": 7114,
      "ahead": 7115,
      "bly": 7116,
      "asle": 7117,
      "accom": 7118,
      "nell": 7119,
      "disney": 7120,
      "evil": 7121,
      "personality": 7122,
      "johnny": 7123,
      "involve": 7124,
      "operator": 7125,
      "adaptation": 7126,
      "mandy": 7127,
      "accidents": 7128,
      "exploring": 7129,
      "linguistic": 7130,
      "officer": 7131,
      "ethanol": 7132,
      "cence": 7133,
      "fli": 7134,
      "mud": 7135,
      "pad": 7136,
      "aret": 7137,
      "constr": 7138,
      "amanda": 7139,
      "performed": 7140,
      "sodas": 7141,
      "agency": 7142,
      "cardin": 7143,
      "coron": 7144,
      "monic": 7145,
      "provin": 7146,
      "arities": 7147,
      "highlights": 7148,
      "availability": 7149,
      "yeah": 7150,
      "lays": 7151,
      "spectrum": 7152,
      "requirements": 7153,
      "synthesize": 7154,
      "occupation": 7155,
      "hundredth": 7156,
      "facilitate": 7157,
      "rh": 7158,
      "rides": 7159,
      "sits": 7160,
      "ened": 7161,
      "cohomology": 7162,
      "lows": 7163,
      "lia": 7164,
      "2017": 7165,
      "prior": 7166,
      "secondary": 7167,
      "barber": 7168,
      "picnic": 7169,
      "punch": 7170,
      "winner": 7171,
      "pancakes": 7172,
      "evolutionary": 7173,
      "renal": 7174,
      "appearance": 7175,
      "eliza": 7176,
      "900": 7177,
      "mia": 7178,
      "enz": 7179,
      "isol": 7180,
      "reference": 7181,
      "beck": 7182,
      "cope": 7183,
      "ulated": 7184,
      "prey": 7185,
      "timeline": 7186,
      "lazy": 7187,
      "learned": 7188,
      "asleep": 7189,
      "bass": 7190,
      "mow": 7191,
      "rhe": 7192,
      "icial": 7193,
      "covers": 7194,
      "ulty": 7195,
      "creator": 7196,
      "musician": 7197,
      "freed": 7198,
      "chromo": 7199,
      "pilot": 7200,
      "stretch": 7201,
      "2sin": 7202,
      "eigh": 7203,
      "mp": 7204,
      "pace": 7205,
      "reproduction": 7206,
      "royal": 7207,
      "nether": 7208,
      "somes": 7209,
      "worst": 7210,
      "108": 7211,
      "spher": 7212,
      "sons": 7213,
      "popcorn": 7214,
      "aws": 7215,
      "caps": 7216,
      "wooden": 7217,
      "relationships": 7218,
      "allows": 7219,
      "listening": 7220,
      "nouns": 7221,
      "vaccines": 7222,
      "seems": 7223,
      "employed": 7224,
      "matthew": 7225,
      "insur": 7226,
      "orb": 7227,
      "mangoes": 7228,
      "haw": 7229,
      "solvent": 7230,
      "talent": 7231,
      "minor": 7232,
      "tommy": 7233,
      "tempor": 7234,
      "biggest": 7235,
      "purchasing": 7236,
      "appeared": 7237,
      "tourist": 7238,
      "distribute": 7239,
      "selective": 7240,
      "discovers": 7241,
      "struggling": 7242,
      "regarding": 7243,
      "degradation": 7244,
      "bx": 7245,
      "boun": 7246,
      "πt": 7247,
      "ambi": 7248,
      "berg": 7249,
      "parli": 7250,
      "presidential": 7251,
      "190": 7252,
      "surfaces": 7253,
      "calculus": 7254,
      "buildings": 7255,
      "raised": 7256,
      "invited": 7257,
      "successfully": 7258,
      "association": 7259,
      "riemann": 7260,
      "awards": 7261,
      "cind": 7262,
      "ht": 7263,
      "ito": 7264,
      "pics": 7265,
      "uti": 7266,
      "wizard": 7267,
      "ieval": 7268,
      "diam": 7269,
      "creatures": 7270,
      "embar": 7271,
      "sisters": 7272,
      "hypothe": 7273,
      "medieval": 7274,
      "virgin": 7275,
      "leads": 7276,
      "sites": 7277,
      "batches": 7278,
      "constructed": 7279,
      "footballer": 7280,
      "snail": 7281,
      "ligand": 7282,
      "katrina": 7283,
      "rhyth": 7284,
      "models": 7285,
      "plaza": 7286,
      "bour": 7287,
      "pud": 7288,
      "pure": 7289,
      "tina": 7290,
      "yu": 7291,
      "inser": 7292,
      "reverse": 7293,
      "pebbles": 7294,
      "tale": 7295,
      "2016": 7296,
      "planned": 7297,
      "signed": 7298,
      "borrow": 7299,
      "horizon": 7300,
      "bowling": 7301,
      "strip": 7302,
      "autum": 7303,
      "bella": 7304,
      "saved": 7305,
      "fighting": 7306,
      "elephants": 7307,
      "federal": 7308,
      "normally": 7309,
      "94": 7310,
      "bap": 7311,
      "sab": 7312,
      "sac": 7313,
      "thal": 7314,
      "retri": 7315,
      "uss": 7316,
      "verbs": 7317,
      "closer": 7318,
      "presenting": 7319,
      "helpful": 7320,
      "vegetable": 7321,
      "diagnosed": 7322,
      "hypertension": 7323,
      "chromatic": 7324,
      "karen": 7325,
      "celebrate": 7326,
      "apollo": 7327,
      "parliament": 7328,
      "wings": 7329,
      "izations": 7330,
      "trips": 7331,
      "volun": 7332,
      "nutrient": 7333,
      "australian": 7334,
      "instruments": 7335,
      "alphabe": 7336,
      "advertising": 7337,
      "neurotransmit": 7338,
      "credit": 7339,
      "communicate": 7340,
      "neurons": 7341,
      "awesome": 7342,
      "netherlands": 7343,
      "nights": 7344,
      "scare": 7345,
      "anth": 7346,
      "orbit": 7347,
      "maker": 7348,
      "predat": 7349,
      "2012": 7350,
      "stops": 7351,
      "countryside": 7352,
      "holes": 7353,
      "hunt": 7354,
      "smoking": 7355,
      "pent": 7356,
      "sest": 7357,
      "xn": 7358,
      "zinc": 7359,
      "iconic": 7360,
      "ilia": 7361,
      "users": 7362,
      "ultural": 7363,
      "calm": 7364,
      "nitrate": 7365,
      "butterflies": 7366,
      "lipid": 7367,
      "assignment": 7368,
      "puppy": 7369,
      "laboratory": 7370,
      "delivered": 7371,
      "tac": 7372,
      "soap": 7373,
      "worms": 7374,
      "iana": 7375,
      "sail": 7376,
      "treasure": 7377,
      "lifes": 7378,
      "cheer": 7379,
      "salmon": 7380,
      "layers": 7381,
      "goods": 7382,
      "instance": 7383,
      "flex": 7384,
      "conductivity": 7385,
      "speaker": 7386,
      "antibiotics": 7387,
      "witness": 7388,
      "legend": 7389,
      "volunte": 7390,
      "begins": 7391,
      "rested": 7392,
      "shore": 7393,
      "wrap": 7394,
      "duck": 7395,
      "strange": 7396,
      "phosph": 7397,
      "reached": 7398,
      "facing": 7399,
      "crop": 7400,
      "frey": 7401,
      "accepts": 7402,
      "rupt": 7403,
      "benzene": 7404,
      "autumn": 7405,
      "02": 7406,
      "forget": 7407,
      "rival": 7408,
      "terror": 7409,
      "petal": 7410,
      "nee": 7411,
      "liber": 7412,
      "restaurants": 7413,
      "charity": 7414,
      "thrown": 7415,
      "shortest": 7416,
      "showed": 7417,
      "runway": 7418,
      "brot": 7419,
      "medications": 7420,
      "illustrate": 7421,
      "immediately": 7422,
      "comfortable": 7423,
      "hurricane": 7424,
      "bble": 7425,
      "inten": 7426,
      "ora": 7427,
      "boss": 7428,
      "carlos": 7429,
      "basil": 7430,
      "overlap": 7431,
      "topher": 7432,
      "guil": 7433,
      "uniform": 7434,
      "password": 7435,
      "pipe": 7436,
      "snack": 7437,
      "victory": 7438,
      "topology": 7439,
      "invented": 7440,
      "inflam": 7441,
      "aspects": 7442,
      "francisco": 7443,
      "statistics": 7444,
      "envelopes": 7445,
      "vine": 7446,
      "retail": 7447,
      "tious": 7448,
      "adian": 7449,
      "sibility": 7450,
      "shire": 7451,
      "cessive": 7452,
      "bru": 7453,
      "disorder": 7454,
      "longest": 7455,
      "charged": 7456,
      "sings": 7457,
      "wars": 7458,
      "guard": 7459,
      "binary": 7460,
      "frustr": 7461,
      "annie": 7462,
      "lux": 7463,
      "swing": 7464,
      "videos": 7465,
      "christopher": 7466,
      "pollut": 7467,
      "organs": 7468,
      "anxiety": 7469,
      "mandelbrot": 7470,
      "130": 7471,
      "golf": 7472,
      "ua": 7473,
      "comfort": 7474,
      "gran": 7475,
      "creates": 7476,
      "anged": 7477,
      "iot": 7478,
      "anyone": 7479,
      "consideration": 7480,
      "starred": 7481,
      "technical": 7482,
      "electrons": 7483,
      "seeking": 7484,
      "headache": 7485,
      "streets": 7486,
      "statue": 7487,
      "strawberry": 7488,
      "manufacturer": 7489,
      "assembl": 7490,
      "comparison": 7491,
      "soldiers": 7492,
      "beyond": 7493,
      "malaysi": 7494,
      "pn": 7495,
      "pam": 7496,
      "pend": 7497,
      "erick": 7498,
      "tires": 7499,
      "unic": 7500,
      "exceed": 7501,
      "neth": 7502,
      "constitution": 7503,
      "fund": 7504,
      "craf": 7505,
      "evapor": 7506,
      "graphs": 7507,
      "skir": 7508,
      "glad": 7509,
      "attending": 7510,
      "testing": 7511,
      "beneficial": 7512,
      "limerick": 7513,
      "directly": 7514,
      "lined": 7515,
      "consumer": 7516,
      "albums": 7517,
      "joined": 7518,
      "richard": 7519,
      "secretary": 7520,
      "acceptable": 7521,
      "computational": 7522,
      "extremely": 7523,
      "antibiotic": 7524,
      "acceleration": 7525,
      "featuring": 7526,
      "brenda": 7527,
      "magazine": 7528,
      "3000": 7529,
      "dick": 7530,
      "pour": 7531,
      "rush": 7532,
      "inum": 7533,
      "umbre": 7534,
      "defect": 7535,
      "mood": 7536,
      "nose": 7537,
      "boston": 7538,
      "phill": 7539,
      "assass": 7540,
      "proud": 7541,
      "intersect": 7542,
      "greenhouse": 7543,
      "wavel": 7544,
      "vote": 7545,
      "princess": 7546,
      "teenag": 7547,
      "particularly": 7548,
      "tropical": 7549,
      "managing": 7550,
      "improving": 7551,
      "cough": 7552,
      "fisher": 7553,
      "tut": 7554,
      "arth": 7555,
      "roo": 7556,
      "ilton": 7557,
      "grill": 7558,
      "cially": 7559,
      "coll": 7560,
      "joel": 7561,
      "bib": 7562,
      "saying": 7563,
      "purchases": 7564,
      "hamilton": 7565,
      "ella": 7566,
      "sorry": 7567,
      "introduction": 7568,
      "conservation": 7569,
      "endocrine": 7570,
      "ammonia": 7571,
      "wavelength": 7572,
      "krist": 7573,
      "twin": 7574,
      "wan": 7575,
      "carn": 7576,
      "minal": 7577,
      "igning": 7578,
      "turkey": 7579,
      "placement": 7580,
      "channel": 7581,
      "osc": 7582,
      "reduced": 7583,
      "jumped": 7584,
      "islands": 7585,
      "doughnuts": 7586,
      "lonely": 7587,
      "taught": 7588,
      "orbital": 7589,
      "leap": 7590,
      "whom": 7591,
      "vet": 7592,
      "acting": 7593,
      "agents": 7594,
      "101": 7595,
      "viet": 7596,
      "mont": 7597,
      "astro": 7598,
      "colog": 7599,
      "missed": 7600,
      "tallest": 7601,
      "receiving": 7602,
      "approximate": 7603,
      "elementary": 7604,
      "sustainability": 7605,
      "academic": 7606,
      "homogeneous": 7607,
      "stomach": 7608,
      "oscill": 7609,
      "kip": 7610,
      "dem": 7611,
      "wels": 7612,
      "images": 7613,
      "composed": 7614,
      "noise": 7615,
      "clare": 7616,
      "tails": 7617,
      "thermal": 7618,
      "coli": 7619,
      "putting": 7620,
      "thirds": 7621,
      "claims": 7622,
      "eventually": 7623,
      "ylic": 7624,
      "hungry": 7625,
      "interested": 7626,
      "eastern": 7627,
      "amino": 7628,
      "feedback": 7629,
      "slogan": 7630,
      "emergency": 7631,
      "championship": 7632,
      "agricultural": 7633,
      "bage": 7634,
      "gence": 7635,
      "oe": 7636,
      "itro": 7637,
      "rod": 7638,
      "trends": 7639,
      "combat": 7640,
      "cucum": 7641,
      "kenneth": 7642,
      "pulled": 7643,
      "secure": 7644,
      "kyo": 7645,
      "throwing": 7646,
      "recognize": 7647,
      "nucleus": 7648,
      "encourage": 7649,
      "groom": 7650,
      "gcd": 7651,
      "pons": 7652,
      "rav": 7653,
      "iced": 7654,
      "ador": 7655,
      "adjust": 7656,
      "exhi": 7657,
      "allerg": 7658,
      "haha": 7659,
      "carter": 7660,
      "identity": 7661,
      "simulations": 7662,
      "foods": 7663,
      "validate": 7664,
      "projects": 7665,
      "arguments": 7666,
      "solubility": 7667,
      "felic": 7668,
      "segments": 7669,
      "doubled": 7670,
      "saving": 7671,
      "zoic": 7672,
      "pher": 7673,
      "theat": 7674,
      "redox": 7675,
      "choles": 7676,
      "rog": 7677,
      "riage": 7678,
      "outcomes": 7679,
      "aria": 7680,
      "guar": 7681,
      "guys": 7682,
      "closest": 7683,
      "seeing": 7684,
      "architecture": 7685,
      "verifying": 7686,
      "dumpling": 7687,
      "fossil": 7688,
      "freedom": 7689,
      "cers": 7690,
      "jail": 7691,
      "sic": 7692,
      "marath": 7693,
      "cription": 7694,
      "bry": 7695,
      "effort": 7696,
      "meditation": 7697,
      "subgroups": 7698,
      "oscar": 7699,
      "parker": 7700,
      "attacks": 7701,
      "prince": 7702,
      "palest": 7703,
      "laps": 7704,
      "microorganisms": 7705,
      "elimin": 7706,
      "flagpole": 7707,
      "surrounding": 7708,
      "olympic": 7709,
      "navig": 7710,
      "advancements": 7711,
      "advertisement": 7712,
      "fountain": 7713,
      "ku": 7714,
      "entails": 7715,
      "plough": 7716,
      "reson": 7717,
      "respons": 7718,
      "steak": 7719,
      "tyler": 7720,
      "numbered": 7721,
      "carto": 7722,
      "emma": 7723,
      "correlation": 7724,
      "mond": 7725,
      "colon": 7726,
      "jobs": 7727,
      "treated": 7728,
      "simult": 7729,
      "stopped": 7730,
      "blockchain": 7731,
      "killing": 7732,
      "simultane": 7733,
      "320": 7734,
      "juni": 7735,
      "nd": 7736,
      "inform": 7737,
      "cooper": 7738,
      "unexpected": 7739,
      "outcome": 7740,
      "shine": 7741,
      "completion": 7742,
      "buses": 7743,
      "washed": 7744,
      "matching": 7745,
      "offered": 7746,
      "parallelo": 7747,
      "exercises": 7748,
      "engagement": 7749,
      "lifespan": 7750,
      "4000": 7751,
      "6z": 7752,
      "tast": 7753,
      "olds": 7754,
      "stem": 7755,
      "spiders": 7756,
      "coral": 7757,
      "sonnet": 7758,
      "weekends": 7759,
      "cubes": 7760,
      "volcan": 7761,
      "thrill": 7762,
      "feels": 7763,
      "bands": 7764,
      "sharp": 7765,
      "assigned": 7766,
      "idiom": 7767,
      "conveys": 7768,
      "agreed": 7769,
      "html": 7770,
      "virginia": 7771,
      "parallelogram": 7772,
      "garet": 7773,
      "rephrase": 7774,
      "reports": 7775,
      "roger": 7776,
      "cones": 7777,
      "trick": 7778,
      "marsh": 7779,
      "2011": 7780,
      "corro": 7781,
      "supplies": 7782,
      "bonds": 7783,
      "ulture": 7784,
      "rained": 7785,
      "markers": 7786,
      "luke": 7787,
      "penses": 7788,
      "figur": 7789,
      "gained": 7790,
      "thousands": 7791,
      "practicing": 7792,
      "microsoft": 7793,
      "86": 7794,
      "kate": 7795,
      "knot": 7796,
      "phe": 7797,
      "vivid": 7798,
      "thin": 7799,
      "metry": 7800,
      "notic": 7801,
      "leton": 7802,
      "brad": 7803,
      "ause": 7804,
      "drag": 7805,
      "overline": 7806,
      "stolen": 7807,
      "versus": 7808,
      "akita": 7809,
      "landing": 7810,
      "oted": 7811,
      "elev": 7812,
      "patrick": 7813,
      "cloth": 7814,
      "slide": 7815,
      "iodine": 7816,
      "eukary": 7817,
      "danny": 7818,
      "directions": 7819,
      "trigonometric": 7820,
      "persist": 7821,
      "politician": 7822,
      "jazz": 7823,
      "bang": 7824,
      "caffe": 7825,
      "sang": 7826,
      "escape": 7827,
      "legos": 7828,
      "bea": 7829,
      "expenses": 7830,
      "wealth": 7831,
      "fe2": 7832,
      "fern": 7833,
      "subsets": 7834,
      "intensity": 7835,
      "helping": 7836,
      "ireland": 7837,
      "packed": 7838,
      "languages": 7839,
      "laying": 7840,
      "historic": 7841,
      "necessarily": 7842,
      "modifications": 7843,
      "rapid": 7844,
      "quotient": 7845,
      "exploration": 7846,
      "finger": 7847,
      "tanya": 7848,
      "shampoo": 7849,
      "accommo": 7850,
      "dles": 7851,
      "hou": 7852,
      "mason": 7853,
      "infer": 7854,
      "request": 7855,
      "entre": 7856,
      "beta": 7857,
      "proto": 7858,
      "plum": 7859,
      "cong": 7860,
      "pots": 7861,
      "exhibit": 7862,
      "geometric": 7863,
      "peroxide": 7864,
      "cantor": 7865,
      "steam": 7866,
      "2019": 7867,
      "etc": 7868,
      "aska": 7869,
      "skilled": 7870,
      "multiply": 7871,
      "meaningful": 7872,
      "youngest": 7873,
      "courses": 7874,
      "regional": 7875,
      "educational": 7876,
      "titan": 7877,
      "preferred": 7878,
      "mirror": 7879,
      "03": 7880,
      "ema": 7881,
      "fers": 7882,
      "zone": 7883,
      "orches": 7884,
      "imbap": 7885,
      "grab": 7886,
      "2014": 7887,
      "mainten": 7888,
      "decade": 7889,
      "patch": 7890,
      "candle": 7891,
      "stayed": 7892,
      "yoga": 7893,
      "emissions": 7894,
      "herbiv": 7895,
      "petals": 7896,
      "bibimbap": 7897,
      "responses": 7898,
      "maintenance": 7899,
      "3t": 7900,
      "gig": 7901,
      "lav": 7902,
      "tap": 7903,
      "anatom": 7904,
      "tope": 7905,
      "whis": 7906,
      "abra": 7907,
      "pod": 7908,
      "wikip": 7909,
      "trace": 7910,
      "diverse": 7911,
      "spon": 7912,
      "buckets": 7913,
      "somewhere": 7914,
      "collo": 7915,
      "surger": 7916,
      "wake": 7917,
      "realized": 7918,
      "yelp": 7919,
      "bulb": 7920,
      "tility": 7921,
      "crowne": 7922,
      "belongs": 7923,
      "elizabeth": 7924,
      "caffeine": 7925,
      "bunch": 7926,
      "gus": 7927,
      "hong": 7928,
      "smile": 7929,
      "inson": 7930,
      "reu": 7931,
      "forts": 7932,
      "impossible": 7933,
      "efforts": 7934,
      "pressed": 7935,
      "cynth": 7936,
      "expressing": 7937,
      "handshakes": 7938,
      "holly": 7939,
      "enthus": 7940,
      "behaviors": 7941,
      "stronger": 7942,
      "modified": 7943,
      "landscape": 7944,
      "harvested": 7945,
      "metaphor": 7946,
      "province": 7947,
      "simultaneously": 7948,
      "wikipedia": 7949,
      "cynthia": 7950,
      "backs": 7951,
      "een": 7952,
      "kong": 7953,
      "ister": 7954,
      "towels": 7955,
      "tokyo": 7956,
      "arab": 7957,
      "chor": 7958,
      "seated": 7959,
      "qual": 7960,
      "quiet": 7961,
      "poon": 7962,
      "acute": 7963,
      "verte": 7964,
      "grown": 7965,
      "lots": 7966,
      "earlier": 7967,
      "letes": 7968,
      "mona": 7969,
      "compass": 7970,
      "subgroup": 7971,
      "wallet": 7972,
      "barry": 7973,
      "dancer": 7974,
      "twist": 7975,
      "isotope": 7976,
      "laws": 7977,
      "melting": 7978,
      "faced": 7979,
      "honda": 7980,
      "residue": 7981,
      "cricket": 7982,
      "explosion": 7983,
      "attached": 7984,
      "disappointed": 7985,
      "dawn": 7986,
      "marathon": 7987,
      "ecolog": 7988,
      "oct": 7989,
      "raw": 7990,
      "toast": 7991,
      "oline": 7992,
      "heli": 7993,
      "delay": 7994,
      "comment": 7995,
      "cla": 7996,
      "designing": 7997,
      "thermo": 7998,
      "miner": 7999,
      "enger": 8000,
      "highway": 8001,
      "organize": 8002,
      "collecting": 8003,
      "strike": 8004,
      "hurt": 8005,
      "opportunities": 8006,
      "aspirin": 8007,
      "sophie": 8008,
      "tat": 8009,
      "tial": 8010,
      "alz": 8011,
      "chart": 8012,
      "whale": 8013,
      "exter": 8014,
      "grape": 8015,
      "sip": 8016,
      "shin": 8017,
      "findings": 8018,
      "monitor": 8019,
      "fries": 8020,
      "planes": 8021,
      "affects": 8022,
      "household": 8023,
      "locations": 8024,
      "inclusive": 8025,
      "naturally": 8026,
      "rocky": 8027,
      "damaged": 8028,
      "easier": 8029,
      "madrid": 8030,
      "pacific": 8031,
      "applying": 8032,
      "caterpill": 8033,
      "vertebr": 8034,
      "dal": 8035,
      "sink": 8036,
      "enn": 8037,
      "acres": 8038,
      "wore": 8039,
      "105": 8040,
      "corp": 8041,
      "poses": 8042,
      "variations": 8043,
      "capable": 8044,
      "planting": 8045,
      "powder": 8046,
      "beds": 8047,
      "ika": 8048,
      "messages": 8049,
      "distributive": 8050,
      "bundle": 8051,
      "tensor": 8052,
      "pregnant": 8053,
      "galaxy": 8054,
      "abraham": 8055,
      "surgery": 8056,
      "hay": 8057,
      "sine": 8058,
      "ying": 8059,
      "threw": 8060,
      "infr": 8061,
      "infect": 8062,
      "eness": 8063,
      "reli": 8064,
      "altitude": 8065,
      "declar": 8066,
      "ulum": 8067,
      "contamin": 8068,
      "2018": 8069,
      "trait": 8070,
      "athletes": 8071,
      "cycles": 8072,
      "rena": 8073,
      "valuable": 8074,
      "hatch": 8075,
      "sadness": 8076,
      "luna": 8077,
      "cricke": 8078,
      "trapezium": 8079,
      "reveal": 8080,
      "twitter": 8081,
      "intricate": 8082,
      "2h2o": 8083,
      "rink": 8084,
      "iments": 8085,
      "clip": 8086,
      "collabor": 8087,
      "juan": 8088,
      "nathan": 8089,
      "bald": 8090,
      "orphic": 8091,
      "raining": 8092,
      "capitalization": 8093,
      "programming": 8094,
      "lemons": 8095,
      "clarity": 8096,
      "clinical": 8097,
      "dirty": 8098,
      "chaotic": 8099,
      "craig": 8100,
      "alphabetical": 8101,
      "ders": 8102,
      "pills": 8103,
      "thrice": 8104,
      "chat": 8105,
      "sek": 8106,
      "iran": 8107,
      "undirected": 8108,
      "mango": 8109,
      "actors": 8110,
      "margin": 8111,
      "tings": 8112,
      "123": 8113,
      "internal": 8114,
      "nings": 8115,
      "ficiency": 8116,
      "heading": 8117,
      "justice": 8118,
      "euro": 8119,
      "electrochemical": 8120,
      "targeted": 8121,
      "repeated": 8122,
      "ginger": 8123,
      "cousin": 8124,
      "philippines": 8125,
      "ascending": 8126,
      "mitosis": 8127,
      "citizens": 8128,
      "kangaroos": 8129,
      "earthquake": 8130,
      "insurance": 8131,
      "hate": 8132,
      "kyl": 8133,
      "x0": 8134,
      "anhydr": 8135,
      "veter": 8136,
      "heated": 8137,
      "ivy": 8138,
      "ounts": 8139,
      "bled": 8140,
      "blind": 8141,
      "emia": 8142,
      "mineral": 8143,
      "finite": 8144,
      "turtle": 8145,
      "identified": 8146,
      "ketch": 8147,
      "mistake": 8148,
      "handed": 8149,
      "imaging": 8150,
      "recommendations": 8151,
      "immun": 8152,
      "defend": 8153,
      "crypto": 8154,
      "packets": 8155,
      "desktop": 8156,
      "demonstrate": 8157,
      "snowflakes": 8158,
      "coconut": 8159,
      "schedule": 8160,
      "heimer": 8161,
      "reuters": 8162,
      "minerals": 8163,
      "kylie": 8164,
      "cs": 8165,
      "reward": 8166,
      "howard": 8167,
      "avoc": 8168,
      "chose": 8169,
      "256": 8170,
      "raz": 8171,
      "instruction": 8172,
      "resistant": 8173,
      "joey": 8174,
      "assembly": 8175,
      "vicsek": 8176,
      "stuffed": 8177,
      "agriculture": 8178,
      "a4": 8179,
      "bent": 8180,
      "o4": 8181,
      "tors": 8182,
      "voc": 8183,
      "espe": 8184,
      "ripe": 8185,
      "acies": 8186,
      "ghan": 8187,
      "therape": 8188,
      "parabol": 8189,
      "cartons": 8190,
      "blues": 8191,
      "pride": 8192,
      "prene": 8193,
      "jewel": 8194,
      "cu2": 8195,
      "properly": 8196,
      "advantage": 8197,
      "decreases": 8198,
      "session": 8199,
      "flavors": 8200,
      "entreprene": 8201,
      "especially": 8202,
      "210": 8203,
      "athen": 8204,
      "fans": 8205,
      "lation": 8206,
      "sword": 8207,
      "anno": 8208,
      "alive": 8209,
      "chel": 8210,
      "core": 8211,
      "mosqu": 8212,
      "aine": 8213,
      "tai": 8214,
      "angers": 8215,
      "notable": 8216,
      "dissoci": 8217,
      "1500": 8218,
      "commission": 8219,
      "brave": 8220,
      "bringing": 8221,
      "jessie": 8222,
      "wilson": 8223,
      "rhyme": 8224,
      "recognition": 8225,
      "daisy": 8226,
      "gentle": 8227,
      "established": 8228,
      "israel": 8229,
      "ultimately": 8230,
      "insert": 8231,
      "alzheimer": 8232,
      "bold": 8233,
      "oke": 8234,
      "tong": 8235,
      "vice": 8236,
      "iner": 8237,
      "lean": 8238,
      "aband": 8239,
      "hell": 8240,
      "heating": 8241,
      "pear": 8242,
      "canadian": 8243,
      "mari": 8244,
      "carlo": 8245,
      "carbo": 8246,
      "bust": 8247,
      "dates": 8248,
      "starring": 8249,
      "obic": 8250,
      "visible": 8251,
      "thirty": 8252,
      "raid": 8253,
      "analytic": 8254,
      "polyethylene": 8255,
      "rainforest": 8256,
      "recommendation": 8257,
      "flew": 8258,
      "kidney": 8259,
      "crucial": 8260,
      "kendra": 8261,
      "styles": 8262,
      "natalie": 8263,
      "tetrahedron": 8264,
      "noticed": 8265,
      "dand": 8266,
      "ec": 8267,
      "figh": 8268,
      "allen": 8269,
      "ulous": 8270,
      "folk": 8271,
      "carries": 8272,
      "cerem": 8273,
      "simon": 8274,
      "files": 8275,
      "protection": 8276,
      "iliar": 8277,
      "smoke": 8278,
      "baker": 8279,
      "kelly": 8280,
      "olympics": 8281,
      "gamma": 8282,
      "korea": 8283,
      "substitution": 8284,
      "cindy": 8285,
      "8th": 8286,
      "bby": 8287,
      "c4": 8288,
      "gno": 8289,
      "rounds": 8290,
      "tent": 8291,
      "vul": 8292,
      "stal": 8293,
      "roy": 8294,
      "cli": 8295,
      "10th": 8296,
      "hybrid": 8297,
      "gasoline": 8298,
      "dense": 8299,
      "wears": 8300,
      "arranged": 8301,
      "evolve": 8302,
      "occurred": 8303,
      "excite": 8304,
      "katie": 8305,
      "dynamic": 8306,
      "estimated": 8307,
      "thrive": 8308,
      "sicilia": 8309,
      "corrosion": 8310,
      "enthusias": 8311,
      "carbohydr": 8312,
      "lene": 8313,
      "sche": 8314,
      "vs": 8315,
      "inher": 8316,
      "enemy": 8317,
      "urt": 8318,
      "pleasure": 8319,
      "bore": 8320,
      "marcy": 8321,
      "solo": 8322,
      "knowing": 8323,
      "twel": 8324,
      "2001": 8325,
      "bible": 8326,
      "lifting": 8327,
      "goldfish": 8328,
      "anni": 8329,
      "widget": 8330,
      "injured": 8331,
      "papay": 8332,
      "digestive": 8333,
      "tulips": 8334,
      "112": 8335,
      "ras": 8336,
      "slight": 8337,
      "toler": 8338,
      "arts": 8339,
      "restric": 8340,
      "strict": 8341,
      "2013": 8342,
      "compat": 8343,
      "labe": 8344,
      "commas": 8345,
      "circul": 8346,
      "belief": 8347,
      "refle": 8348,
      "gordon": 8349,
      "radical": 8350,
      "determining": 8351,
      "vanilla": 8352,
      "adventures": 8353,
      "symbols": 8354,
      "warehouse": 8355,
      "linguist": 8356,
      "popsic": 8357,
      "sensitivity": 8358,
      "dolphins": 8359,
      "cin": 8360,
      "yn": 8361,
      "youtube": 8362,
      "accus": 8363,
      "logs": 8364,
      "2015": 8365,
      "dram": 8366,
      "familiar": 8367,
      "1800": 8368,
      "guest": 8369,
      "athy": 8370,
      "2007": 8371,
      "underwater": 8372,
      "ventions": 8373,
      "organized": 8374,
      "contributions": 8375,
      "sandra": 8376,
      "torn": 8377,
      "staying": 8378,
      "pasta": 8379,
      "habits": 8380,
      "theoretical": 8381,
      "sexual": 8382,
      "necklace": 8383,
      "deeper": 8384,
      "rhythm": 8385,
      "accommodate": 8386,
      "dissociation": 8387,
      "pitu": 8388,
      "enclosed": 8389,
      "alum": 8390,
      "ascript": 8391,
      "rocket": 8392,
      "cock": 8393,
      "irus": 8394,
      "amole": 8395,
      "perio": 8396,
      "sole": 8397,
      "deser": 8398,
      "valence": 8399,
      "update": 8400,
      "buzz": 8401,
      "supposed": 8402,
      "rais": 8403,
      "continent": 8404,
      "intest": 8405,
      "metro": 8406,
      "physic": 8407,
      "polymerization": 8408,
      "builds": 8409,
      "romeo": 8410,
      "christine": 8411,
      "javascript": 8412,
      "illustr": 8413,
      "loyalty": 8414,
      "proposal": 8415,
      "cricketers": 8416,
      "therapeutic": 8417,
      "lil": 8418,
      "mask": 8419,
      "rural": 8420,
      "stim": 8421,
      "thouse": 8422,
      "isions": 8423,
      "andra": 8424,
      "nobel": 8425,
      "cart": 8426,
      "fles": 8427,
      "inscribed": 8428,
      "nearly": 8429,
      "1634": 8430,
      "facebook": 8431,
      "flows": 8432,
      "burned": 8433,
      "stir": 8434,
      "denotes": 8435,
      "switch": 8436,
      "couch": 8437,
      "offering": 8438,
      "fortun": 8439,
      "introduced": 8440,
      "alphabet": 8441,
      "chapters": 8442,
      "vitamin": 8443,
      "umbrella": 8444,
      "resonance": 8445,
      "excitement": 8446,
      "gger": 8447,
      "hide": 8448,
      "qr": 8449,
      "swal": 8450,
      "tend": 8451,
      "wolf": 8452,
      "alaska": 8453,
      "query": 8454,
      "bom": 8455,
      "diana": 8456,
      "upset": 8457,
      "omorphic": 8458,
      "monte": 8459,
      "igno": 8460,
      "avirus": 8461,
      "texture": 8462,
      "calculator": 8463,
      "lara": 8464,
      "powered": 8465,
      "succeed": 8466,
      "cooling": 8467,
      "wildlife": 8468,
      "astronom": 8469,
      "dedic": 8470,
      "polarity": 8471,
      "emails": 8472,
      "abandon": 8473,
      "periods": 8474,
      "kc": 8475,
      "peng": 8476,
      "eria": 8477,
      "remind": 8478,
      "toward": 8479,
      "imgur": 8480,
      "trend": 8481,
      "no3": 8482,
      "generally": 8483,
      "12x": 8484,
      "finance": 8485,
      "primes": 8486,
      "calculated": 8487,
      "calculating": 8488,
      "walter": 8489,
      "lorenz": 8490,
      "ffs": 8491,
      "superhero": 8492,
      "madison": 8493,
      "resource": 8494,
      "residues": 8495,
      "fingers": 8496,
      "knife": 8497,
      "debate": 8498,
      "religious": 8499,
      "egypt": 8500,
      "lollipops": 8501,
      "ecological": 8502,
      "dandel": 8503,
      "aero": 8504,
      "bie": 8505,
      "cable": 8506,
      "ography": 8507,
      "raf": 8508,
      "tate": 8509,
      "vamp": 8510,
      "ria": 8511,
      "depos": 8512,
      "mario": 8513,
      "stephen": 8514,
      "pra": 8515,
      "avo": 8516,
      "functioning": 8517,
      "calculates": 8518,
      "larry": 8519,
      "dividing": 8520,
      "135": 8521,
      "borne": 8522,
      "synap": 8523,
      "spoken": 8524,
      "existence": 8525,
      "tablespoons": 8526,
      "savings": 8527,
      "daughters": 8528,
      "aquatic": 8529,
      "curious": 8530,
      "advisor": 8531,
      "revise": 8532,
      "caleb": 8533,
      "coronavirus": 8534,
      "neurotransmitters": 8535,
      "guilty": 8536,
      "assemblages": 8537,
      "jewelry": 8538,
      "pengu": 8539,
      "fare": 8540,
      "hz": 8541,
      "sir": 8542,
      "uh": 8543,
      "vor": 8544,
      "asant": 8545,
      "quet": 8546,
      "idal": 8547,
      "proposition": 8548,
      "healing": 8549,
      "debut": 8550,
      "sig": 8551,
      "uten": 8552,
      "cliff": 8553,
      "marily": 8554,
      "markets": 8555,
      "equals": 8556,
      "crate": 8557,
      "server": 8558,
      "turner": 8559,
      "jug": 8560,
      "addressing": 8561,
      "wax": 8562,
      "portion": 8563,
      "environmentally": 8564,
      "climbs": 8565,
      "nedy": 8566,
      "shares": 8567,
      "modification": 8568,
      "blowing": 8569,
      "launched": 8570,
      "shadow": 8571,
      "egyp": 8572,
      "scared": 8573,
      "png": 8574,
      "orchestra": 8575,
      "c6": 8576,
      "rebell": 8577,
      "arrested": 8578,
      "romance": 8579,
      "sean": 8580,
      "abil": 8581,
      "adop": 8582,
      "adrenal": 8583,
      "ung": 8584,
      "103": 8585,
      "button": 8586,
      "weekdays": 8587,
      "dye": 8588,
      "bookstore": 8589,
      "broc": 8590,
      "farther": 8591,
      "minimal": 8592,
      "hike": 8593,
      "pathy": 8594,
      "elliot": 8595,
      "authority": 8596,
      "telephone": 8597,
      "cotton": 8598,
      "concerns": 8599,
      "sibling": 8600,
      "commerce": 8601,
      "motorcycle": 8602,
      "progress": 8603,
      "surrounded": 8604,
      "soldier": 8605,
      "sponge": 8606,
      "gnomes": 8607,
      "1st": 8608,
      "rof": 8609,
      "vy": 8610,
      "indoor": 8611,
      "atp": 8612,
      "reds": 8613,
      "arter": 8614,
      "stacy": 8615,
      "indi": 8616,
      "cultures": 8617,
      "cyber": 8618,
      "halfway": 8619,
      "specificity": 8620,
      "guid": 8621,
      "skill": 8622,
      "channels": 8623,
      "foundation": 8624,
      "sammy": 8625,
      "millilit": 8626,
      "behavioral": 8627,
      "alexander": 8628,
      "managed": 8629,
      "instein": 8630,
      "fifths": 8631,
      "civilization": 8632,
      "kinds": 8633,
      "academy": 8634,
      "modulo": 8635,
      "attractions": 8636,
      "macarons": 8637,
      "depicts": 8638,
      "luxury": 8639,
      "milliliters": 8640,
      "nail": 8641,
      "yp": 8642,
      "ined": 8643,
      "reunion": 8644,
      "enters": 8645,
      "ione": 8646,
      "acles": 8647,
      "oppon": 8648,
      "cl2": 8649,
      "actual": 8650,
      "extin": 8651,
      "reader": 8652,
      "stored": 8653,
      "workout": 8654,
      "basement": 8655,
      "publisher": 8656,
      "filling": 8657,
      "diego": 8658,
      "satisfactory": 8659,
      "sharing": 8660,
      "pirate": 8661,
      "mediation": 8662,
      "genesis": 8663,
      "taxonomy": 8664,
      "oliver": 8665,
      "antonym": 8666,
      "skateboard": 8667,
      "kilometres": 8668,
      "malaysia": 8669,
      "athens": 8670,
      "broccoli": 8671,
      "dil": 8672,
      "dedu": 8673,
      "gb": 8674,
      "tled": 8675,
      "thus": 8676,
      "itzer": 8677,
      "edward": 8678,
      "sew": 8679,
      "abul": 8680,
      "nego": 8681,
      "trum": 8682,
      "desc": 8683,
      "2021": 8684,
      "ishing": 8685,
      "pressive": 8686,
      "eline": 8687,
      "choir": 8688,
      "flood": 8689,
      "guine": 8690,
      "designer": 8691,
      "continued": 8692,
      "puzzles": 8693,
      "participate": 8694,
      "sensory": 8695,
      "dominant": 8696,
      "utilize": 8697,
      "750": 8698,
      "einstein": 8699,
      "fits": 8700,
      "oak": 8701,
      "witch": 8702,
      "attic": 8703,
      "ening": 8704,
      "tives": 8705,
      "lewis": 8706,
      "bells": 8707,
      "irish": 8708,
      "plu": 8709,
      "concrete": 8710,
      "amber": 8711,
      "afghan": 8712,
      "wouldn": 8713,
      "boots": 8714,
      "lawr": 8715,
      "substrate": 8716,
      "requiring": 8717,
      "obama": 8718,
      "burning": 8719,
      "170": 8720,
      "parked": 8721,
      "shake": 8722,
      "reaches": 8723,
      "yields": 8724,
      "divisors": 8725,
      "taxes": 8726,
      "intelligent": 8727,
      "difficulty": 8728,
      "residents": 8729,
      "cytosis": 8730,
      "opportunity": 8731,
      "tongue": 8732,
      "vast": 8733,
      "inner": 8734,
      "coher": 8735,
      "acle": 8736,
      "no2": 8737,
      "stead": 8738,
      "earns": 8739,
      "graphical": 8740,
      "muslim": 8741,
      "3xy": 8742,
      "fastest": 8743,
      "wedge": 8744,
      "courage": 8745,
      "prints": 8746,
      "285": 8747,
      "millions": 8748,
      "complain": 8749,
      "electronics": 8750,
      "spoon": 8751,
      "wonderful": 8752,
      "nasa": 8753,
      "religion": 8754,
      "israeli": 8755,
      "leonardo": 8756,
      "composer": 8757,
      "hyperbolic": 8758,
      "twelve": 8759,
      "negoti": 8760,
      "lawrence": 8761,
      "6th": 8762,
      "aer": 8763,
      "aque": 8764,
      "cree": 8765,
      "intake": 8766,
      "islam": 8767,
      "reword": 8768,
      "rosa": 8769,
      "roads": 8770,
      "quer": 8771,
      "vertical": 8772,
      "complications": 8773,
      "bomb": 8774,
      "bloo": 8775,
      "monkey": 8776,
      "lakes": 8777,
      "1970": 8778,
      "volley": 8779,
      "purse": 8780,
      "rainfall": 8781,
      "iodide": 8782,
      "constantly": 8783,
      "freezer": 8784,
      "jerome": 8785,
      "ohio": 8786,
      "accept": 8787,
      "nelson": 8788,
      "javier": 8789,
      "suggestions": 8790,
      "wisdom": 8791,
      "inspiration": 8792,
      "horizontal": 8793,
      "280": 8794,
      "administer": 8795,
      "plain": 8796,
      "uran": 8797,
      "veron": 8798,
      "afraid": 8799,
      "monument": 8800,
      "disci": 8801,
      "intercep": 8802,
      "intercept": 8803,
      "laid": 8804,
      "breast": 8805,
      "sung": 8806,
      "samples": 8807,
      "biography": 8808,
      "imaginary": 8809,
      "breakdown": 8810,
      "governor": 8811,
      "lindsey": 8812,
      "decreased": 8813,
      "bounded": 8814,
      "paraphrase": 8815,
      "accidentally": 8816,
      "therapies": 8817,
      "conducted": 8818,
      "vaporization": 8819,
      "tiny": 8820,
      "decline": 8821,
      "dinosaurs": 8822,
      "bruce": 8823,
      "480": 8824,
      "yo": 8825,
      "stries": 8826,
      "seth": 8827,
      "melo": 8828,
      "qualities": 8829,
      "configur": 8830,
      "imper": 8831,
      "shi": 8832,
      "1960": 8833,
      "choosing": 8834,
      "chances": 8835,
      "summarizing": 8836,
      "rug": 8837,
      "stuck": 8838,
      "industries": 8839,
      "targets": 8840,
      "troops": 8841,
      "efficiently": 8842,
      "shelves": 8843,
      "titled": 8844,
      "personalized": 8845,
      "shapes": 8846,
      "attempt": 8847,
      "reptiles": 8848,
      "suddenly": 8849,
      "administration": 8850,
      "knock": 8851,
      "erasers": 8852,
      "congru": 8853,
      "hypothetical": 8854,
      "hamiltonian": 8855,
      "guinea": 8856,
      "7th": 8857,
      "aunt": 8858,
      "cit": 8859,
      "dent": 8860,
      "tab": 8861,
      "inian": 8862,
      "coon": 8863,
      "programs": 8864,
      "ayer": 8865,
      "territ": 8866,
      "doctors": 8867,
      "unable": 8868,
      "illin": 8869,
      "boats": 8870,
      "afford": 8871,
      "ferris": 8872,
      "frag": 8873,
      "coln": 8874,
      "collar": 8875,
      "treats": 8876,
      "captures": 8877,
      "boring": 8878,
      "acidic": 8879,
      "flyers": 8880,
      "lincoln": 8881,
      "williams": 8882,
      "competitive": 8883,
      "curvatures": 8884,
      "hydration": 8885,
      "issance": 8886,
      "synthetic": 8887,
      "loaded": 8888,
      "independence": 8889,
      "nurse": 8890,
      "pumpkin": 8891,
      "guidance": 8892,
      "hans": 8893,
      "lens": 8894,
      "xx": 8895,
      "onion": 8896,
      "vegas": 8897,
      "olar": 8898,
      "protest": 8899,
      "outfit": 8900,
      "worse": 8901,
      "endor": 8902,
      "affin": 8903,
      "producer": 8904,
      "joys": 8905,
      "examine": 8906,
      "naive": 8907,
      "mayor": 8908,
      "magma": 8909,
      "hardware": 8910,
      "pays": 8911,
      "melt": 8912,
      "sweater": 8913,
      "tourists": 8914,
      "nutrition": 8915,
      "situations": 8916,
      "c3": 8917,
      "cue": 8918,
      "sate": 8919,
      "swed": 8920,
      "uc": 8921,
      "ust": 8922,
      "thunder": 8923,
      "ata": 8924,
      "recur": 8925,
      "aland": 8926,
      "semes": 8927,
      "adri": 8928,
      "amounts": 8929,
      "pover": 8930,
      "allig": 8931,
      "loaf": 8932,
      "parties": 8933,
      "angie": 8934,
      "consuming": 8935,
      "128": 8936,
      "aircraft": 8937,
      "listed": 8938,
      "boost": 8939,
      "ios": 8940,
      "lessons": 8941,
      "donate": 8942,
      "visits": 8943,
      "cupboard": 8944,
      "porch": 8945,
      "combinations": 8946,
      "electroly": 8947,
      "frequently": 8948,
      "closely": 8949,
      "brandon": 8950,
      "hearts": 8951,
      "revolutionary": 8952,
      "trays": 8953,
      "differentiation": 8954,
      "peppers": 8955,
      "mythology": 8956,
      "pharmace": 8957,
      "insights": 8958,
      "gabri": 8959,
      "mushrooms": 8960,
      "bouncy": 8961,
      "volleyball": 8962,
      "3sin": 8963,
      "bia": 8964,
      "gland": 8965,
      "ience": 8966,
      "kis": 8967,
      "rats": 8968,
      "sri": 8969,
      "reques": 8970,
      "asu": 8971,
      "itational": 8972,
      "gem": 8973,
      "youth": 8974,
      "ghost": 8975,
      "illness": 8976,
      "logo": 8977,
      "phi": 8978,
      "strings": 8979,
      "kings": 8980,
      "syll": 8981,
      "minus": 8982,
      "drought": 8983,
      "fron": 8984,
      "jogs": 8985,
      "hodge": 8986,
      "intermedi": 8987,
      "hallow": 8988,
      "weekly": 8989,
      "commonsense": 8990,
      "descriptions": 8991,
      "homeost": 8992,
      "occas": 8993,
      "watson": 8994,
      "imagery": 8995,
      "songwriter": 8996,
      "hiking": 8997,
      "girlfriend": 8998,
      "juliet": 8999,
      "akeem": 9000,
      "autoimmune": 9001,
      "featured": 9002,
      "conventional": 9003,
      "graduate": 9004,
      "pollutants": 9005,
      "colloidal": 9006,
      "cage": 9007,
      "fasc": 9008,
      "tough": 9009,
      "forced": 9010,
      "iona": 9011,
      "hemo": 9012,
      "exposed": 9013,
      "shed": 9014,
      "logan": 9015,
      "loads": 9016,
      "monarch": 9017,
      "disper": 9018,
      "flage": 9019,
      "flash": 9020,
      "primarily": 9021,
      "humid": 9022,
      "mostly": 9023,
      "lesson": 9024,
      "remained": 9025,
      "bury": 9026,
      "pier": 9027,
      "delta": 9028,
      "supporting": 9029,
      "ellen": 9030,
      "secretion": 9031,
      "cheryl": 9032,
      "packet": 9033,
      "champions": 9034,
      "challenging": 9035,
      "rhyming": 9036,
      "resolution": 9037,
      "diamond": 9038,
      "parabola": 9039,
      "affinity": 9040,
      "homeostasis": 9041,
      "ais": 9042,
      "iti": 9043,
      "inated": 9044,
      "este": 9045,
      "bever": 9046,
      "ionization": 9047,
      "geting": 9048,
      "antine": 9049,
      "makeup": 9050,
      "boxing": 9051,
      "2003": 9052,
      "selecting": 9053,
      "paints": 9054,
      "dante": 9055,
      "drawings": 9056,
      "tub": 9057,
      "futur": 9058,
      "fortune": 9059,
      "candidates": 9060,
      "passenger": 9061,
      "gravitational": 9062,
      "exercised": 9063,
      "thyroid": 9064,
      "chapter": 9065,
      "flavored": 9066,
      "suffering": 9067,
      "theatre": 9068,
      "renaissance": 9069,
      "ceremony": 9070,
      "aluminum": 9071,
      "halloween": 9072,
      "theast": 9073,
      "inju": 9074,
      "ala": 9075,
      "wers": 9076,
      "peach": 9077,
      "estate": 9078,
      "earrings": 9079,
      "austri": 9080,
      "arians": 9081,
      "flights": 9082,
      "subway": 9083,
      "keyword": 9084,
      "isomers": 9085,
      "releases": 9086,
      "pige": 9087,
      "melons": 9088,
      "checked": 9089,
      "politics": 9090,
      "toxicity": 9091,
      "discipl": 9092,
      "intercepts": 9093,
      "mash": 9094,
      "sop": 9095,
      "saves": 9096,
      "isation": 9097,
      "asth": 9098,
      "chir": 9099,
      "metres": 9100,
      "adequ": 9101,
      "hemis": 9102,
      "domes": 9103,
      "dear": 9104,
      "ulf": 9105,
      "playlist": 9106,
      "classmates": 9107,
      "readers": 9108,
      "commander": 9109,
      "detailing": 9110,
      "brett": 9111,
      "loose": 9112,
      "multiplication": 9113,
      "winds": 9114,
      "antiviral": 9115,
      "santa": 9116,
      "regulating": 9117,
      "wilder": 9118,
      "habitats": 9119,
      "kittens": 9120,
      "pregnancy": 9121,
      "believed": 9122,
      "poetry": 9123,
      "kinetic": 9124,
      "racing": 9125,
      "keeper": 9126,
      "palestinian": 9127,
      "scheme": 9128,
      "dramatic": 9129,
      "dedicated": 9130,
      "pc": 9131,
      "uv": 9132,
      "isos": 9133,
      "outer": 9134,
      "aren": 9135,
      "arena": 9136,
      "ura": 9137,
      "imply": 9138,
      "grat": 9139,
      "gras": 9140,
      "sight": 9141,
      "criminal": 9142,
      "cave": 9143,
      "19th": 9144,
      "shortness": 9145,
      "runner": 9146,
      "anka": 9147,
      "costume": 9148,
      "ordinary": 9149,
      "sediment": 9150,
      "attan": 9151,
      "movements": 9152,
      "luc": 9153,
      "soul": 9154,
      "hamburgers": 9155,
      "michelle": 9156,
      "notebook": 9157,
      "exciting": 9158,
      "mutual": 9159,
      "branches": 9160,
      "eigenvalues": 9161,
      "sensitive": 9162,
      "guaran": 9163,
      "houston": 9164,
      "isosceles": 9165,
      "2h2": 9166,
      "wend": 9167,
      "entro": 9168,
      "meets": 9169,
      "dos": 9170,
      "resume": 9171,
      "haven": 9172,
      "shy": 9173,
      "0000": 9174,
      "marie": 9175,
      "endanger": 9176,
      "colour": 9177,
      "specify": 9178,
      "setence": 9179,
      "stove": 9180,
      "animated": 9181,
      "lasting": 9182,
      "parkinson": 9183,
      "dennis": 9184,
      "pathophy": 9185,
      "paying": 9186,
      "campus": 9187,
      "specialized": 9188,
      "darkness": 9189,
      "breathing": 9190,
      "consistent": 9191,
      "tanks": 9192,
      "jeffrey": 9193,
      "erosion": 9194,
      "conducting": 9195,
      "peanuts": 9196,
      "philosop": 9197,
      "oysters": 9198,
      "dutch": 9199,
      "injuries": 9200,
      "pathophysi": 9201,
      "2nd": 9202,
      "bart": 9203,
      "dv": 9204,
      "dun": 9205,
      "gment": 9206,
      "iest": 9207,
      "lac": 9208,
      "nba": 9209,
      "sid": 9210,
      "alter": 9211,
      "quart": 9212,
      "arem": 9213,
      "trump": 9214,
      "grounds": 9215,
      "clause": 9216,
      "ticides": 9217,
      "cara": 9218,
      "anging": 9219,
      "cia": 9220,
      "dated": 9221,
      "artists": 9222,
      "chooses": 9223,
      "relations": 9224,
      "barn": 9225,
      "priced": 9226,
      "biochemical": 9227,
      "waters": 9228,
      "isomer": 9229,
      "mortal": 9230,
      "argent": 9231,
      "nitric": 9232,
      "compelling": 9233,
      "catalyzed": 9234,
      "catcher": 9235,
      "mathematic": 9236,
      "medicinal": 9237,
      "crust": 9238,
      "victim": 9239,
      "digestion": 9240,
      "pints": 9241,
      "promising": 9242,
      "inhibitors": 9243,
      "vinegar": 9244,
      "mosquito": 9245,
      "uranium": 9246,
      "235": 9247,
      "fai": 9248,
      "iation": 9249,
      "nig": 9250,
      "pitation": 9251,
      "rho": 9252,
      "tight": 9253,
      "ila": 9254,
      "abi": 9255,
      "propy": 9256,
      "sities": 9257,
      "displacement": 9258,
      "rye": 9259,
      "singapo": 9260,
      "bushes": 9261,
      "penny": 9262,
      "sunshine": 9263,
      "portions": 9264,
      "kennedy": 9265,
      "claimed": 9266,
      "hier": 9267,
      "gonna": 9268,
      "cleaner": 9269,
      "similarities": 9270,
      "legis": 9271,
      "preventing": 9272,
      "ironing": 9273,
      "feeding": 9274,
      "investing": 9275,
      "geography": 9276,
      "decorations": 9277,
      "precipitation": 9278,
      "teaspoon": 9279,
      "temporary": 9280,
      "vocabul": 9281,
      "singapore": 9282,
      "vocabulary": 9283,
      "bach": 9284,
      "gian": 9285,
      "hated": 9286,
      "lfloor": 9287,
      "rfloor": 9288,
      "thol": 9289,
      "onia": 9290,
      "excessive": 9291,
      "gear": 9292,
      "apers": 9293,
      "sigh": 9294,
      "loan": 9295,
      "derived": 9296,
      "okay": 9297,
      "epic": 9298,
      "zealand": 9299,
      "complexity": 9300,
      "footprint": 9301,
      "gardener": 9302,
      "archae": 9303,
      "infecti": 9304,
      "vinci": 9305,
      "discussion": 9306,
      "expresses": 9307,
      "sleeps": 9308,
      "determinant": 9309,
      "confident": 9310,
      "jesus": 9311,
      "activated": 9312,
      "hearing": 9313,
      "welcome": 9314,
      "referred": 9315,
      "clinton": 9316,
      "violin": 9317,
      "arthur": 9318,
      "asthma": 9319,
      "philosopher": 9320,
      "infectious": 9321,
      "cass": 9322,
      "epo": 9323,
      "nate": 9324,
      "ota": 9325,
      "x²": 9326,
      "enna": 9327,
      "recycling": 9328,
      "alys": 9329,
      "alfred": 9330,
      "tol": 9331,
      "chon": 9332,
      "ira": 9333,
      "pods": 9334,
      "opsis": 9335,
      "pleasant": 9336,
      "agnes": 9337,
      "genres": 9338,
      "prevalence": 9339,
      "uprof": 9340,
      "fires": 9341,
      "drunk": 9342,
      "affecting": 9343,
      "1999": 9344,
      "humor": 9345,
      "simplic": 9346,
      "puri": 9347,
      "careful": 9348,
      "membran": 9349,
      "harris": 9350,
      "holmes": 9351,
      "microw": 9352,
      "hunger": 9353,
      "adapted": 9354,
      "thorough": 9355,
      "ralph": 9356,
      "lining": 9357,
      "enjoying": 9358,
      "destin": 9359,
      "crosses": 9360,
      "spotted": 9361,
      "ibuprof": 9362,
      "frameworks": 9363,
      "anthony": 9364,
      "predators": 9365,
      "eukaryotic": 9366,
      "popsicle": 9367,
      "domestic": 9368,
      "ibuprofen": 9369,
      "lists": 9370,
      "mend": 9371,
      "pmod": 9372,
      "zie": 9373,
      "ensive": 9374,
      "rewritten": 9375,
      "whel": 9376,
      "oliv": 9377,
      "clients": 9378,
      "20th": 9379,
      "buf": 9380,
      "calor": 9381,
      "trigger": 9382,
      "settle": 9383,
[...]
